{
  "version": "1.0",
  "truncation": {
    "direction": "Right",
    "max_length": 128,
    "strategy": "LongestFirst",
    "stride": 0
  },
  "padding": {
    "strategy": "BatchLongest",
    "direction": "Right",
    "pad_to_multiple_of": null,
    "pad_id": 0,
    "pad_type_id": 0,
    "pad_token": "[PAD]"
  },
  "added_tokens": [
    {
      "id": 0,
      "content": "[PAD]",
      "single_word": false,
      "lstrip": false,
      "rstrip": false,
      "normalized": false,
      "special": true
    },
    {
      "id": 1,
      "content": "[CLS]",
      "single_word": false,
      "lstrip": false,
      "rstrip": false,
      "normalized": false,
      "special": true
    },
    {
      "id": 2,
      "content": "[SEP]",
      "single_word": false,
      "lstrip": false,
      "rstrip": false,
      "normalized": false,
      "special": true
    },
    {
      "id": 3,
      "content": "[UNK]",
      "single_word": false,
      "lstrip": false,
      "rstrip": false,
      "normalized": false,
      "special": true
    },
    {
      "id": 4,
      "content": "[MASK]",
      "single_word": false,
      "lstrip": false,
      "rstrip": false,
      "normalized": false,
      "special": true
    }
  ],
  "normalizer": {
    "type": "Sequence",
    "normalizers": [
      {
        "type": "Replace",
        "pattern": {
          "Regex": "\\s{2,}|[\\n\\r\\t]"
        },
        "content": " "
      },
      {
        "type": "NFC"
      },
      {
        "type": "Strip",
        "strip_left": false,
        "strip_right": true
      }
    ]
  },
  "pre_tokenizer": {
    "type": "Sequence",
    "pretokenizers": [
      {
        "type": "Metaspace",
        "replacement": "▁",
        "prepend_scheme": "always",
        "split": true
      }
    ]
  },
  "post_processor": {
    "type": "TemplateProcessing",
    "single": [
      {
        "SpecialToken": {
          "id": "[CLS]",
          "type_id": 0
        }
      },
      {
        "Sequence": {
          "id": "A",
          "type_id": 0
        }
      },
      {
        "SpecialToken": {
          "id": "[SEP]",
          "type_id": 0
        }
      }
    ],
    "pair": [
      {
        "SpecialToken": {
          "id": "[CLS]",
          "type_id": 0
        }
      },
      {
        "Sequence": {
          "id": "A",
          "type_id": 0
        }
      },
      {
        "SpecialToken": {
          "id": "[SEP]",
          "type_id": 0
        }
      },
      {
        "Sequence": {
          "id": "B",
          "type_id": 1
        }
      },
      {
        "SpecialToken": {
          "id": "[SEP]",
          "type_id": 1
        }
      }
    ],
    "special_tokens": {
      "[CLS]": {
        "id": "[CLS]",
        "ids": [
          1
        ],
        "tokens": [
          "[CLS]"
        ]
      },
      "[SEP]": {
        "id": "[SEP]",
        "ids": [
          2
        ],
        "tokens": [
          "[SEP]"
        ]
      }
    }
  },
  "decoder": {
    "type": "Metaspace",
    "replacement": "▁",
    "prepend_scheme": "always",
    "split": true
  },
  "model": {
    "type": "Unigram",
    "unk_id": 3,
    "vocab": [
      [
        "[PAD]",
        0.0
      ],
      [
        "[CLS]",
        0.0
      ],
      [
        "[SEP]",
        0.0
      ],
      [
        "[UNK]",
        0.0
      ],
      [
        "[MASK]",
        0.0
      ],
      [
        "▁",
        -1.8622330586637863
      ],
      [
        "▁và",
        -4.6370653128889
      ],
      [
        "▁của",
        -4.665982482937675
      ],
      [
        "▁là",
        -4.8240217521496085
      ],
      [
        "▁có",
        -4.925343317415248
      ],
      [
        "▁không",
        -5.038220782629612
      ],
      [
        "-",
        -5.054074625772095
      ],
      [
        "▁các",
        -5.115876929443111
      ],
      [
        "▁được",
        -5.119943651385025
      ],
      [
        "▁cho",
        -5.136668987517297
      ],
      [
        "▁trong",
        -5.2110357357049075
      ],
      [
        "▁một",
        -5.290108064297861
      ],
      [
        "▁người",
        -5.386617504157467
      ],
      [
        "▁với",
        -5.425526640291459
      ],
      [
        "▁những",
        -5.483386863801421
      ],
      [
        "▁đã",
        -5.569102295143331
      ],
      [
        "▁để",
        -5.577436075150683
      ],
      [
        "▁này",
        -5.6894305890137815
      ],
      [
        "▁bạn",
        -5.732394876816311
      ],
      [
        "▁về",
        -5.784671210785884
      ],
      [
        "▁đến",
        -5.797349328753505
      ],
      [
        "ở",
        -5.82624035897765
      ],
      [
        "▁khi",
        -5.869636216462908
      ],
      [
        "▁cũng",
        -5.875556473733017
      ],
      [
        "▁sẽ",
        -5.91155577697943
      ],
      [
        "▁như",
        -5.93826942220722
      ],
      [
        "▁vào",
        -5.981599239492628
      ],
      [
        "▁ra",
        -5.993865351606118
      ],
      [
        "▁lại",
        -6.015942593469816
      ],
      [
        "▁phải",
        -6.024210289899781
      ],
      [
        "▁đó",
        -6.035263297448676
      ],
      [
        "▁làm",
        -6.042710522525407
      ],
      [
        "▁nhiều",
        -6.046808255802574
      ],
      [
        "▁từ",
        -6.051978087616472
      ],
      [
        "▁trên",
        -6.056892547460514
      ],
      [
        "▁tại",
        -6.1376990630451225
      ],
      [
        "▁đi",
        -6.159239793458163
      ],
      [
        "▁mà",
        -6.162115935527151
      ],
      [
        "▁thì",
        -6.1909824992982685
      ],
      [
        "▁năm",
        -6.1916035302359305
      ],
      [
        "▁nhất",
        -6.286537912248196
      ],
      [
        "▁nhà",
        -6.308235867655153
      ],
      [
        "▁ngày",
        -6.335446456392749
      ],
      [
        "▁hơn",
        -6.372855385698788
      ],
      [
        "▁mình",
        -6.375316063308087
      ],
      [
        "▁1",
        -6.379817199446546
      ],
      [
        "▁còn",
        -6.395196014995051
      ],
      [
        "▁mới",
        -6.405809500909655
      ],
      [
        "▁nói",
        -6.415851898385817
      ],
      [
        "▁chỉ",
        -6.4218672004487445
      ],
      [
        "▁bị",
        -6.42574531201554
      ],
      [
        "▁tôi",
        -6.430451982027453
      ],
      [
        "▁sau",
        -6.4537834491369725
      ],
      [
        "▁rất",
        -6.460830308487125
      ],
      [
        "▁nhưng",
        -6.541927771027256
      ],
      [
        "▁theo",
        -6.544858487514755
      ],
      [
        "▁sự",
        -6.55921511736209
      ],
      [
        "▁biết",
        -6.564623858534343
      ],
      [
        "▁2",
        -6.567158885956028
      ],
      [
        "▁gì",
        -6.573812779124342
      ],
      [
        "▁nên",
        -6.604084578540107
      ],
      [
        "▁đang",
        -6.614987191623406
      ],
      [
        "▁việc",
        -6.627387697342014
      ],
      [
        "▁khác",
        -6.629240832392632
      ],
      [
        "▁lên",
        -6.645674280807146
      ],
      [
        "▁anh",
        -6.657901928510126
      ],
      [
        "▁đây",
        -6.673920631256795
      ],
      [
        "▁nước",
        -6.747683473648882
      ],
      [
        "▁hay",
        -6.753799084805086
      ],
      [
        "▁cần",
        -6.755968910516632
      ],
      [
        "▁trước",
        -6.7784865394838025
      ],
      [
        "▁3",
        -6.784275410431089
      ],
      [
        "▁cô",
        -6.834907845198215
      ],
      [
        "▁con",
        -6.836192929037908
      ],
      [
        "n",
        -6.85633032910337
      ],
      [
        "▁thấy",
        -6.8788392952644735
      ],
      [
        "▁cao",
        -6.892211399279612
      ],
      [
        "▁hoặc",
        -6.894730198139799
      ],
      [
        "▁tốt",
        -6.916160736377561
      ],
      [
        "▁nào",
        -6.928530876774241
      ],
      [
        "▁tới",
        -6.939752013267054
      ],
      [
        "m",
        -6.949899174066481
      ],
      [
        "▁qua",
        -6.956626487360706
      ],
      [
        "▁ông",
        -6.960719585064602
      ],
      [
        "▁rồi",
        -6.967111447251813
      ],
      [
        "▁cái",
        -6.97185083087259
      ],
      [
        "▁cùng",
        -6.972395791916581
      ],
      [
        "▁hai",
        -6.978683118751027
      ],
      [
        "▁vì",
        -6.982416004816237
      ],
      [
        "▁tháng",
        -6.984673994101481
      ],
      [
        "▁cách",
        -6.997318175264949
      ],
      [
        "▁hàng",
        -7.0044329534081236
      ],
      [
        "▁bằng",
        -7.016819908129644
      ],
      [
        "▁ta",
        -7.0241853358875055
      ],
      [
        "▁vẫn",
        -7.028409060375649
      ],
      [
        "▁cả",
        -7.049774852623955
      ],
      [
        "▁họ",
        -7.061512957938664
      ],
      [
        "▁muốn",
        -7.0742551126150115
      ],
      [
        "▁giúp",
        -7.090812273377368
      ],
      [
        "▁nó",
        -7.107896711976451
      ],
      [
        "▁em",
        -7.129549634845205
      ],
      [
        "▁chính",
        -7.137746216816076
      ],
      [
        "▁lần",
        -7.158839275000689
      ],
      [
        "t",
        -7.159362091674916
      ],
      [
        "▁4",
        -7.16014602406554
      ],
      [
        "▁đều",
        -7.170955524593621
      ],
      [
        "▁5",
        -7.176803238674282
      ],
      [
        "▁bên",
        -7.182060806062653
      ],
      [
        "▁lớn",
        -7.190726794716895
      ],
      [
        "▁số",
        -7.192832855181701
      ],
      [
        "▁chưa",
        -7.203250105422667
      ],
      [
        "▁đường",
        -7.205821043516149
      ],
      [
        "▁đầu",
        -7.215536467985306
      ],
      [
        "▁điều",
        -7.216517861508986
      ],
      [
        "▁nhìn",
        -7.21900972198765
      ],
      [
        "▁10",
        -7.220545102959578
      ],
      [
        "▁dùng",
        -7.221722954415606
      ],
      [
        "▁giá",
        -7.231866219559235
      ],
      [
        "▁do",
        -7.233231090285093
      ],
      [
        "▁loại",
        -7.23373585411359
      ],
      [
        "▁xe",
        -7.2368507606538675
      ],
      [
        "▁bài",
        -7.237888697722219
      ],
      [
        "▁viết",
        -7.248188689469696
      ],
      [
        "▁nhau",
        -7.260433072149274
      ],
      [
        "▁ăn",
        -7.268468956264332
      ],
      [
        "▁rằng",
        -7.274893042093057
      ],
      [
        "▁mọi",
        -7.29848710222166
      ],
      [
        "▁nếu",
        -7.30760557196818
      ],
      [
        "▁2018",
        -7.312154748981992
      ],
      [
        "i",
        -7.316088141978243
      ],
      [
        "▁lúc",
        -7.317977893572449
      ],
      [
        "c",
        -7.319535467615889
      ],
      [
        "▁thêm",
        -7.320160713484018
      ],
      [
        "▁mang",
        -7.320595075960048
      ],
      [
        "▁quá",
        -7.36067017980041
      ],
      [
        "▁thứ",
        -7.363007545348415
      ],
      [
        "▁vừa",
        -7.373956980408689
      ],
      [
        "▁da",
        -7.37409882141406
      ],
      [
        "▁xem",
        -7.376248493337545
      ],
      [
        "▁tiền",
        -7.386795214514585
      ],
      [
        "▁học",
        -7.429179614713492
      ],
      [
        "▁mua",
        -7.451522534383312
      ],
      [
        "▁nữa",
        -7.459976227410632
      ],
      [
        "▁nơi",
        -7.463497534143842
      ],
      [
        "▁phòng",
        -7.468031897700747
      ],
      [
        "▁ngay",
        -7.48086988791394
      ],
      [
        "▁đẹp",
        -7.480883967584356
      ],
      [
        "▁bệnh",
        -7.487511029937377
      ],
      [
        "▁bán",
        -7.488292259293683
      ],
      [
        "▁6",
        -7.496514521444739
      ],
      [
        "▁nhận",
        -7.506409019578635
      ],
      [
        "▁nhỏ",
        -7.523716472589756
      ],
      [
        "▁tay",
        -7.533995123718235
      ],
      [
        "▁hắn",
        -7.534082436852977
      ],
      [
        "▁ấy",
        -7.537343319713187
      ],
      [
        "a",
        -7.543330430603461
      ],
      [
        "▁gây",
        -7.56296089717936
      ],
      [
        "▁luôn",
        -7.565321826614696
      ],
      [
        "▁tạo",
        -7.575248028451634
      ],
      [
        "▁tin",
        -7.57656854526588
      ],
      [
        "▁đưa",
        -7.577249395412359
      ],
      [
        "▁từng",
        -7.578112272715977
      ],
      [
        "▁ai",
        -7.57814498409896
      ],
      [
        "▁7",
        -7.589911296205413
      ],
      [
        "▁tuổi",
        -7.591181562877482
      ],
      [
        "▁gần",
        -7.59628561697496
      ],
      [
        "▁tiếng",
        -7.596872428325318
      ],
      [
        "▁bởi",
        -7.600698804821278
      ],
      [
        "▁khiến",
        -7.60534673173402
      ],
      [
        "▁tìm",
        -7.619764918830878
      ],
      [
        "▁mỗi",
        -7.639688295509426
      ],
      [
        "▁mặt",
        -7.652166954001199
      ],
      [
        "▁trẻ",
        -7.6553948713763855
      ],
      [
        "▁đúng",
        -7.658858500690034
      ],
      [
        "▁tăng",
        -7.664682396625427
      ],
      [
        "▁sao",
        -7.665878842195982
      ],
      [
        "▁tên",
        -7.666332758098138
      ],
      [
        "▁dưới",
        -7.672984097633988
      ],
      [
        "▁cấp",
        -7.673492532117734
      ],
      [
        "▁thế",
        -7.67889312194659
      ],
      [
        "▁tỉnh",
        -7.680830331510483
      ],
      [
        "▁câu",
        -7.684550343288786
      ],
      [
        "▁sống",
        -7.685137295816041
      ],
      [
        "▁ngoài",
        -7.696441343769319
      ],
      [
        "▁gặp",
        -7.696994026460523
      ],
      [
        "▁giảm",
        -7.724925875905912
      ],
      [
        "▁lấy",
        -7.733268530389997
      ],
      [
        "▁hỏi",
        -7.738093433663643
      ],
      [
        "▁12",
        -7.74034489552384
      ],
      [
        "▁thật",
        -7.741699731310943
      ],
      [
        "▁mất",
        -7.743295976805026
      ],
      [
        "▁thường",
        -7.745007175366384
      ],
      [
        "▁đồng",
        -7.745015324090112
      ],
      [
        "▁giữa",
        -7.747795550893386
      ],
      [
        "▁bộ",
        -7.765991371075765
      ],
      [
        "▁mẹ",
        -7.7668129101622
      ],
      [
        "▁mắt",
        -7.767746708919436
      ],
      [
        "▁chiếc",
        -7.778321148510146
      ],
      [
        "▁8",
        -7.778397589014007
      ],
      [
        "▁đâu",
        -7.779882674795781
      ],
      [
        "▁điểm",
        -7.8117460129791105
      ],
      [
        "▁bé",
        -7.824999614834434
      ],
      [
        "▁xuống",
        -7.83014468090326
      ],
      [
        "▁nhanh",
        -7.83125866016902
      ],
      [
        "▁trường",
        -7.840971083504503
      ],
      [
        "▁chuyện",
        -7.845626709246179
      ],
      [
        "▁đất",
        -7.85025801965979
      ],
      [
        "▁2017",
        -7.8588624295122465
      ],
      [
        "▁nàng",
        -7.860237841237074
      ],
      [
        "▁phần",
        -7.865911512179224
      ],
      [
        "▁lời",
        -7.8689979032125965
      ],
      [
        "▁chị",
        -7.87213829837825
      ],
      [
        "▁dân",
        -7.878169473968955
      ],
      [
        "▁b",
        -7.888248369585055
      ],
      [
        "▁thành",
        -7.889181239734405
      ],
      [
        "▁hãy",
        -7.89447053116657
      ],
      [
        "▁giờ",
        -7.896938335894475
      ],
      [
        "▁cuộc",
        -7.900108931770307
      ],
      [
        "▁11",
        -7.904076482357947
      ],
      [
        "▁thi",
        -7.904156284157565
      ],
      [
        "▁máy",
        -7.905373824469951
      ],
      [
        "▁gọi",
        -7.90725333711584
      ],
      [
        "▁nghe",
        -7.908279187564791
      ],
      [
        "▁hết",
        -7.910835669335517
      ],
      [
        "▁9",
        -7.940940487060143
      ],
      [
        "▁triệu",
        -7.941321239058347
      ],
      [
        "▁phía",
        -7.944193705851397
      ],
      [
        "▁bà",
        -7.947799684656484
      ],
      [
        "▁màu",
        -7.948099104165278
      ],
      [
        "▁khoảng",
        -7.952014161870537
      ],
      [
        "'",
        -7.955822304325999
      ],
      [
        "▁tự",
        -7.957113952173854
      ],
      [
        "▁sáng",
        -7.9613780993034045
      ],
      [
        "▁nghĩ",
        -7.968042841118288
      ],
      [
        "▁đặt",
        -7.97237777247688
      ],
      [
        "▁hiểu",
        -7.97273664812508
      ],
      [
        "▁thuốc",
        -7.97416732692891
      ],
      [
        "▁chết",
        -7.97882857945409
      ],
      [
        "▁tính",
        -7.978990130149343
      ],
      [
        "▁vậy",
        -7.980050254909248
      ],
      [
        "▁thuộc",
        -7.990990997158761
      ],
      [
        "▁ba",
        -8.000664875617991
      ],
      [
        "▁chọn",
        -8.003385166854734
      ],
      [
        "▁yêu",
        -8.02621822724284
      ],
      [
        "▁v",
        -8.030504941980523
      ],
      [
        "h",
        -8.031825166638686
      ],
      [
        "▁nay",
        -8.036714478397368
      ],
      [
        "▁mức",
        -8.037803198131668
      ],
      [
        "▁đủ",
        -8.048377580344422
      ],
      [
        "▁chống",
        -8.051318012247473
      ],
      [
        "▁gửi",
        -8.05347127673679
      ],
      [
        "▁lòng",
        -8.056142271063608
      ],
      [
        "y",
        -8.061918826013946
      ],
      [
        "▁chúng",
        -8.064612552813145
      ],
      [
        "▁rõ",
        -8.066012477265062
      ],
      [
        "▁khá",
        -8.076957537587141
      ],
      [
        "▁hôm",
        -8.079066038294126
      ],
      [
        "▁cậu",
        -8.080851149021766
      ],
      [
        "▁khu",
        -8.081098538883063
      ],
      [
        "▁khỏi",
        -8.089943599426633
      ],
      [
        "▁20",
        -8.09439686189568
      ],
      [
        "o",
        -8.094813435420441
      ],
      [
        "▁xin",
        -8.095949590021585
      ],
      [
        "▁ngươi",
        -8.103923538389006
      ],
      [
        "▁thôi",
        -8.11042424757298
      ],
      [
        "▁trang",
        -8.11846490151829
      ],
      [
        "▁nguồn",
        -8.119372794108617
      ],
      [
        "▁độ",
        -8.130596373910008
      ],
      [
        "▁ngành",
        -8.131542205936883
      ],
      [
        "▁thích",
        -8.133573172730374
      ],
      [
        "▁bỏ",
        -8.138142787264991
      ],
      [
        "▁đạt",
        -8.138201794194346
      ],
      [
        "▁bước",
        -8.141817941519616
      ],
      [
        "▁cười",
        -8.148676005963894
      ],
      [
        "▁vốn",
        -8.154549139833819
      ],
      [
        "▁cây",
        -8.157493537180507
      ],
      [
        "g",
        -8.158594455869986
      ],
      [
        "▁chân",
        -8.166050639887006
      ],
      [
        "▁vùng",
        -8.166662478227012
      ],
      [
        "▁dành",
        -8.167130049321438
      ],
      [
        "▁khó",
        -8.170492896249355
      ],
      [
        "▁càng",
        -8.17549126966236
      ],
      [
        "▁chẳng",
        -8.182197143018788
      ],
      [
        "▁giữ",
        -8.183289287832867
      ],
      [
        "▁nhé",
        -8.191101671560125
      ],
      [
        "▁đứng",
        -8.191219833614564
      ],
      [
        "▁chủ",
        -8.191223764982006
      ],
      [
        "▁thuê",
        -8.199423704492013
      ],
      [
        "▁dễ",
        -8.209773448353692
      ],
      [
        "▁rẻ",
        -8.219442168026248
      ],
      [
        "▁s",
        -8.220075486635999
      ],
      [
        "▁giống",
        -8.220524615818817
      ],
      [
        "▁chạy",
        -8.23134280500577
      ],
      [
        "▁quyền",
        -8.2336426813826
      ],
      [
        "▁biển",
        -8.240047605875484
      ],
      [
        "▁đôi",
        -8.240983439392798
      ],
      [
        "▁ít",
        -8.242229979427577
      ],
      [
        "▁tỷ",
        -8.244781766551931
      ],
      [
        "▁lớp",
        -8.247435904558262
      ],
      [
        "▁sang",
        -8.252539864490405
      ],
      [
        "▁30",
        -8.253212115030616
      ],
      [
        "▁món",
        -8.254597391641703
      ],
      [
        "▁15",
        -8.25563183397857
      ],
      [
        "▁đánh",
        -8.256941852583353
      ],
      [
        "▁nằm",
        -8.258133476343113
      ],
      [
        "▁kia",
        -8.266938510009897
      ],
      [
        "▁đọc",
        -8.27142725014584
      ],
      [
        "▁kể",
        -8.274660126893068
      ],
      [
        "u",
        -8.283050199110555
      ],
      [
        "▁bắt",
        -8.283325905206953
      ],
      [
        "▁ngủ",
        -8.28403595234429
      ],
      [
        "▁mạng",
        -8.285236211455304
      ],
      [
        "▁khách",
        -8.28932784990375
      ],
      [
        "▁2016",
        -8.309175220312069
      ],
      [
        "▁so",
        -8.311512723074024
      ],
      [
        "s",
        -8.315085803813744
      ],
      [
        "▁chịu",
        -8.317216278671692
      ],
      [
        "▁gái",
        -8.324581370702186
      ],
      [
        "▁sinh",
        -8.327647828059938
      ],
      [
        "▁mở",
        -8.331798486485651
      ],
      [
        "▁uống",
        -8.334558060553356
      ],
      [
        "▁lâu",
        -8.336213837646074
      ],
      [
        "▁ảnh",
        -8.337332049483233
      ],
      [
        "▁nâng",
        -8.34137251237815
      ],
      [
        "▁chung",
        -8.343297108739787
      ],
      [
        "▁tuần",
        -8.343537846649001
      ],
      [
        "▁chơi",
        -8.3456945482964
      ],
      [
        "▁mấy",
        -8.354439440238693
      ],
      [
        "▁chỗ",
        -8.355730244359535
      ],
      [
        "▁đáng",
        -8.35791500499676
      ],
      [
        "▁chứ",
        -8.358848026955421
      ],
      [
        "▁ngồi",
        -8.361098773127067
      ],
      [
        "▁đồ",
        -8.363792704456896
      ],
      [
        "▁dài",
        -8.364469542526686
      ],
      [
        "▁trắng",
        -8.367483528190133
      ],
      [
        "▁điện",
        -8.370527728137148
      ],
      [
        "▁cứ",
        -8.375321556333976
      ],
      [
        "▁vàng",
        -8.378900534992166
      ],
      [
        "▁cạnh",
        -8.383732016561998
      ],
      [
        "▁hoa",
        -8.386582001870817
      ],
      [
        "▁dòng",
        -8.387406451134689
      ],
      [
        "▁nền",
        -8.38982116025309
      ],
      [
        "▁mùa",
        -8.401043666215505
      ],
      [
        "▁thu",
        -8.40163918078764
      ],
      [
        "▁xa",
        -8.40569189067756
      ],
      [
        "▁đau",
        -8.407738288649783
      ],
      [
        "▁vụ",
        -8.41494290887998
      ],
      [
        "▁vị",
        -8.415829133344522
      ],
      [
        "xảy",
        -8.418179072557338
      ],
      [
        "▁nhóm",
        -8.418403824934805
      ],
      [
        "▁riêng",
        -8.420747532022867
      ],
      [
        "▁hướng",
        -8.425086318102405
      ],
      [
        "▁mẫu",
        -8.436951733772723
      ],
      [
        "▁trả",
        -8.439277130970499
      ],
      [
        "▁thiếu",
        -8.448687170837479
      ],
      [
        "▁nhớ",
        -8.44985798738333
      ],
      [
        "▁đem",
        -8.451677142172183
      ],
      [
        "▁sớm",
        -8.453406611337176
      ],
      [
        "▁tránh",
        -8.46692997370755
      ],
      [
        "▁chất",
        -8.46693607807091
      ],
      [
        "▁website",
        -8.468087399297
      ],
      [
        "p",
        -8.469620415789157
      ],
      [
        "▁cửa",
        -8.478932466951184
      ],
      [
        "▁phút",
        -8.488275926790635
      ],
      [
        "▁phim",
        -8.490688432216361
      ],
      [
        "▁chuyển",
        -8.494780046186333
      ],
      [
        "▁2015",
        -8.495618555164238
      ],
      [
        "▁nhằm",
        -8.499878450023552
      ],
      [
        "▁nữ",
        -8.500633333813353
      ],
      [
        "▁phép",
        -8.501529742068552
      ],
      [
        "▁đầy",
        -8.502830628053186
      ],
      [
        "▁báo",
        -8.504813565145291
      ],
      [
        "▁vòng",
        -8.511757363440768
      ],
      [
        "▁khóa",
        -8.514747812706428
      ],
      [
        "▁bàn",
        -8.52301127471958
      ],
      [
        "▁mạnh",
        -8.527552812914141
      ],
      [
        "▁giấy",
        -8.532770419650959
      ],
      [
        "▁liền",
        -8.534655954212322
      ],
      [
        "▁cuối",
        -8.536452111814173
      ],
      [
        "▁cá",
        -8.540891758217063
      ],
      [
        "▁căn",
        -8.54192657767516
      ],
      [
        "▁đông",
        -8.551722789210391
      ],
      [
        "▁lắm",
        -8.55343442504989
      ],
      [
        "▁thuế",
        -8.56069704980947
      ],
      [
        "▁quay",
        -8.564288723987342
      ],
      [
        "▁sách",
        -8.56621674407628
      ],
      [
        "▁buổi",
        -8.569045684813863
      ],
      [
        "▁huyện",
        -8.57497236945874
      ],
      [
        "▁đêm",
        -8.575043059718354
      ],
      [
        "▁quận",
        -8.577862091837972
      ],
      [
        "▁máu",
        -8.582397888032972
      ],
      [
        "▁xanh",
        -8.587138940130167
      ],
      [
        "▁chút",
        -8.591188616149843
      ],
      [
        "▁vô",
        -8.592247096975896
      ],
      [
        "▁dẫn",
        -8.594209777996932
      ],
      [
        "▁thấp",
        -8.596751526175806
      ],
      [
        "▁l",
        -8.597076123743024
      ],
      [
        "▁miễn",
        -8.598497051638956
      ],
      [
        "▁d",
        -8.598567646574658
      ],
      [
        "▁chiều",
        -8.601609517654522
      ],
      [
        "▁vài",
        -8.60246959573099
      ],
      [
        "ý",
        -8.604149004566322
      ],
      [
        "▁răng",
        -8.61096649403131
      ],
      [
        "▁cũ",
        -8.613284542736617
      ],
      [
        "▁18",
        -8.619407154930869
      ],
      [
        "▁100",
        -8.621307933260137
      ],
      [
        "▁đá",
        -8.626746863977175
      ],
      [
        "▁chồng",
        -8.63170429406251
      ],
      [
        "▁dù",
        -8.632316130597234
      ],
      [
        "▁đấy",
        -8.634474652755404
      ],
      [
        "▁đời",
        -8.636351741992705
      ],
      [
        "▁bọn",
        -8.637355196292622
      ],
      [
        "▁x",
        -8.63746607939803
      ],
      [
        "▁nam",
        -8.642405488454385
      ],
      [
        "▁sạch",
        -8.648693506723761
      ],
      [
        "▁bản",
        -8.648862674993454
      ],
      [
        "▁xong",
        -8.649045268493985
      ],
      [
        "▁kiểu",
        -8.650032605107842
      ],
      [
        "▁đừng",
        -8.651838020800318
      ],
      [
        "▁chữa",
        -8.655624704946819
      ],
      [
        "▁hãng",
        -8.660054326067376
      ],
      [
        "▁đ",
        -8.665453720422606
      ],
      [
        "▁16",
        -8.671594773255364
      ],
      [
        "▁giao",
        -8.671877357473443
      ],
      [
        "▁trở",
        -8.67314910860828
      ],
      [
        "▁viêm",
        -8.67466087814878
      ],
      [
        "▁in",
        -8.676407770341527
      ],
      [
        "▁0",
        -8.680227187481908
      ],
      [
        "▁kẻ",
        -8.680948422278231
      ],
      [
        "▁diễn",
        -8.683502738466824
      ],
      [
        "▁bao",
        -8.68614369224758
      ],
      [
        "▁sâu",
        -8.687217467954765
      ],
      [
        "▁giải",
        -8.688609641864206
      ],
      [
        "trải",
        -8.694928207748823
      ],
      [
        "▁nhân",
        -8.699250472216955
      ],
      [
        "▁nóng",
        -8.707946515936209
      ],
      [
        "▁ngon",
        -8.716952427510174
      ],
      [
        "▁sợ",
        -8.717842504639883
      ],
      [
        "▁bóng",
        -8.720908881656344
      ],
      [
        "▁to",
        -8.721884284697076
      ],
      [
        "▁đăng",
        -8.726184555954903
      ],
      [
        "▁hòa",
        -8.726859009031616
      ],
      [
        "▁hình",
        -8.726980192980562
      ],
      [
        "▁thử",
        -8.729173693749624
      ],
      [
        "▁nhờ",
        -8.72972909058208
      ],
      [
        "▁14",
        -8.737541978507695
      ],
      [
        "▁vợ",
        -8.746749795984902
      ],
      [
        "▁miền",
        -8.747963890165988
      ],
      [
        "▁13",
        -8.74854764526622
      ],
      [
        "▁hiện",
        -8.749911234439192
      ],
      [
        "▁vui",
        -8.758911796432978
      ],
      [
        "▁sữa",
        -8.765537346577124
      ],
      [
        "▁tận",
        -8.769935674935278
      ],
      [
        "▁tóc",
        -8.782952115017936
      ],
      [
        "▁sân",
        -8.78528995185834
      ],
      [
        "▁thân",
        -8.788831188026553
      ],
      [
        "▁áo",
        -8.791556659732192
      ],
      [
        "▁chữ",
        -8.80150386893955
      ],
      [
        "▁cổ",
        -8.80796280064721
      ],
      [
        "▁vn",
        -8.80939830342855
      ],
      [
        "▁tầng",
        -8.8124687271513
      ],
      [
        "▁công",
        -8.813575636764599
      ],
      [
        "▁hơi",
        -8.813586712688153
      ],
      [
        "▁17",
        -8.814444860377051
      ],
      [
        "▁đóng",
        -8.817956905359624
      ],
      [
        "▁thăm",
        -8.820299916432118
      ],
      [
        "▁com",
        -8.820349108335147
      ],
      [
        "▁24",
        -8.821076427502451
      ],
      [
        "▁quên",
        -8.827391352185051
      ],
      [
        "▁tối",
        -8.827617571108055
      ],
      [
        "▁nặng",
        -8.829723183402264
      ],
      [
        "▁dạy",
        -8.829789764329151
      ],
      [
        "▁truyện",
        -8.832599294214969
      ],
      [
        "▁01",
        -8.832892322830565
      ],
      [
        "▁đại",
        -8.833427474985307
      ],
      [
        "▁dầu",
        -8.835695642367716
      ],
      [
        "e",
        -8.837991977107288
      ],
      [
        "▁đen",
        -8.839304022939594
      ],
      [
        "▁vẻ",
        -8.840871667500805
      ],
      [
        "▁chắc",
        -8.84124955386048
      ],
      [
        "▁bức",
        -8.853056572059144
      ],
      [
        "▁khoản",
        -8.853150055877034
      ],
      [
        "▁lễ",
        -8.854107792100782
      ],
      [
        "▁vượt",
        -8.861914403654596
      ],
      [
        "▁đỏ",
        -8.86458974199484
      ],
      [
        "▁kỳ",
        -8.86737780104639
      ],
      [
        "▁lượng",
        -8.870502969799386
      ],
      [
        "▁rộng",
        -8.873997901297553
      ],
      [
        "▁toàn",
        -8.876372808836738
      ],
      [
        "▁2014",
        -8.8770577156077
      ],
      [
        "▁quý",
        -8.878453070678098
      ],
      [
        "ng",
        -8.878578775745888
      ],
      [
        "▁trận",
        -8.87882855208598
      ],
      [
        "▁coi",
        -8.87964806176074
      ],
      [
        "▁xã",
        -8.880171083081654
      ],
      [
        "▁bay",
        -8.88174367629819
      ],
      [
        "▁nổi",
        -8.882957136775042
      ],
      [
        "▁vé",
        -8.883039808979861
      ],
      [
        "đứa",
        -8.886943386991208
      ],
      [
        "▁tặng",
        -8.890406949726437
      ],
      [
        "▁ngắn",
        -8.89123332102292
      ],
      [
        "▁châu",
        -8.89215581783245
      ],
      [
        "▁19",
        -8.89692543966456
      ],
      [
        "▁trời",
        -8.897636018024805
      ],
      [
        "▁gỗ",
        -8.905134448161025
      ],
      [
        "▁bánh",
        -8.906891216272182
      ],
      [
        "▁lạnh",
        -8.90968521024068
      ],
      [
        "▁25",
        -8.919760384316673
      ],
      [
        "▁ngôi",
        -8.923295227232623
      ],
      [
        "▁quả",
        -8.924603363884051
      ],
      [
        "▁thư",
        -8.928418209424631
      ],
      [
        "▁cân",
        -8.937175229550547
      ],
      [
        "▁tàu",
        -8.93995674209168
      ],
      [
        "▁50",
        -8.941625555758828
      ],
      [
        "▁kiếm",
        -8.942383029876146
      ],
      [
        "▁bảng",
        -8.942546623101808
      ],
      [
        "▁cầu",
        -8.943516757036823
      ],
      [
        "▁21",
        -8.943631078043847
      ],
      [
        "▁mối",
        -8.944519443668355
      ],
      [
        "▁lỗi",
        -8.945689039482787
      ],
      [
        "▁thịt",
        -8.950774529321384
      ],
      [
        "▁đội",
        -8.95740799822471
      ],
      [
        "▁môn",
        -8.958675480318371
      ],
      [
        "▁chứa",
        -8.960933381515861
      ],
      [
        "▁mắc",
        -8.965752486910317
      ],
      [
        "▁thai",
        -8.966030872095622
      ],
      [
        "▁mặc",
        -8.96606458780984
      ],
      [
        "▁biến",
        -8.968451058119161
      ],
      [
        "▁lo",
        -8.973480695981937
      ],
      [
        "▁kèm",
        -8.976739075721175
      ],
      [
        "▁miệng",
        -8.978050659675244
      ],
      [
        "▁tập",
        -8.984115936766631
      ],
      [
        "▁đơn",
        -8.98567267552753
      ],
      [
        "▁thầy",
        -8.988649723474403
      ],
      [
        "▁đèn",
        -8.989242447371824
      ],
      [
        "▁suốt",
        -8.991228389358369
      ],
      [
        "▁chuyến",
        -8.99141402161336
      ],
      [
        "▁mời",
        -8.993937118239106
      ],
      [
        "▁gồm",
        -8.99406403701512
      ],
      [
        "▁phụ",
        -8.994949697532766
      ],
      [
        "▁bình",
        -8.995677866551972
      ],
      [
        "▁mũi",
        -8.99610325973446
      ],
      [
        "▁tiếp",
        -8.998515630875115
      ],
      [
        "▁núi",
        -9.000836959601179
      ],
      [
        "niềm",
        -9.00280071089894
      ],
      [
        "▁ghi",
        -9.010289972918892
      ],
      [
        "▁sai",
        -9.012208599757953
      ],
      [
        "▁sức",
        -9.01429029883513
      ],
      [
        "▁rượu",
        -9.015577580714696
      ],
      [
        "▁cháu",
        -9.016055653099563
      ],
      [
        "▁thời",
        -9.018814218044268
      ],
      [
        "▁chụp",
        -9.020632716988686
      ],
      [
        "▁chờ",
        -9.023202709164789
      ],
      [
        "▁thay",
        -9.02802601353944
      ],
      [
        "▁ánh",
        -9.028585659551888
      ],
      [
        "▁lá",
        -9.03043930430736
      ],
      [
        "▁dạng",
        -9.032515883887244
      ],
      [
        "▁cực",
        -9.033393075913033
      ],
      [
        "▁nhẹ",
        -9.033920039266388
      ],
      [
        "▁giới",
        -9.035127021772167
      ],
      [
        "▁tình",
        -9.03596296869641
      ],
      [
        "▁phát",
        -9.03740866241088
      ],
      [
        "▁2013",
        -9.037788968948323
      ],
      [
        "▁chặt",
        -9.040904439212976
      ],
      [
        "▁giả",
        -9.0434031711858
      ],
      [
        "▁cắt",
        -9.045306340870086
      ],
      [
        "dựa",
        -9.047791645112802
      ],
      [
        "▁mụn",
        -9.047827458029367
      ],
      [
        "▁vay",
        -9.04998247314957
      ],
      [
        "▁nắm",
        -9.050934711229852
      ],
      [
        "▁chuyên",
        -9.052522037726112
      ],
      [
        "▁22",
        -9.055708405888762
      ],
      [
        "▁sông",
        -9.056842622023058
      ],
      [
        "▁tầm",
        -9.058665181418723
      ],
      [
        "▁bảo",
        -9.064191861247725
      ],
      [
        "▁hát",
        -9.064541429661649
      ],
      [
        "▁hề",
        -9.067400363718727
      ],
      [
        "▁dám",
        -9.073215208063017
      ],
      [
        "▁chàng",
        -9.076297139907032
      ],
      [
        "▁dự",
        -9.078461784930896
      ],
      [
        "▁game",
        -9.081244947589722
      ],
      [
        "ạ",
        -9.082010013729844
      ],
      [
        "▁tấm",
        -9.082526402392196
      ],
      [
        "▁phân",
        -9.082731199877754
      ],
      [
        "▁khô",
        -9.083064613121609
      ],
      [
        "▁bầu",
        -9.090534914060983
      ],
      [
        "▁hộ",
        -9.099792944566426
      ],
      [
        "▁lượt",
        -9.102475723612429
      ],
      [
        "▁ghế",
        -9.104251457770532
      ],
      [
        "▁mười",
        -9.112174325692813
      ],
      [
        "▁mưa",
        -9.114223396786109
      ],
      [
        "▁lập",
        -9.115189884652898
      ],
      [
        "▁09",
        -9.116067625267236
      ],
      [
        "▁quán",
        -9.121912424505735
      ],
      [
        "▁nghỉ",
        -9.12415770408266
      ],
      [
        "▁email",
        -9.124657694790722
      ],
      [
        "▁nguyên",
        -9.125640040516366
      ],
      [
        "▁nuôi",
        -9.126943564863527
      ],
      [
        "▁nghề",
        -9.12857457134028
      ],
      [
        "▁khám",
        -9.129109866682237
      ],
      [
        "▁kéo",
        -9.12951420301892
      ],
      [
        "▁chậm",
        -9.129618962161212
      ],
      [
        "▁trái",
        -9.134339908872164
      ],
      [
        "▁sắp",
        -9.13477606766971
      ],
      [
        "▁dây",
        -9.139175313504348
      ],
      [
        "▁quân",
        -9.141866418393477
      ],
      [
        "▁tim",
        -9.144956548846627
      ],
      [
        "▁mã",
        -9.146062610394877
      ],
      [
        "▁quà",
        -9.14623799947715
      ],
      [
        "r",
        -9.14683573604649
      ],
      [
        "▁thẻ",
        -9.147318558727989
      ],
      [
        "▁trăm",
        -9.147937278408644
      ],
      [
        "▁bếp",
        -9.148305099574928
      ],
      [
        "▁siêu",
        -9.1500779652071
      ],
      [
        "▁bụng",
        -9.154658604383002
      ],
      [
        "▁hệ",
        -9.15468812057783
      ],
      [
        "▁ca",
        -9.154868905722296
      ],
      [
        "▁nhập",
        -9.156805815968694
      ],
      [
        "▁nghiệm",
        -9.156840307022456
      ],
      [
        "▁nắng",
        -9.15947436829338
      ],
      [
        "▁tuyến",
        -9.161256222946331
      ],
      [
        "▁khắp",
        -9.162127812502602
      ],
      [
        "à",
        -9.16500742948222
      ],
      [
        "▁hút",
        -9.165534147718985
      ],
      [
        "▁nửa",
        -9.16554616356233
      ],
      [
        "▁viên",
        -9.166101598874237
      ],
      [
        "▁lạ",
        -9.16727594532279
      ],
      [
        "▁cuốn",
        -9.167473996549088
      ],
      [
        "▁đảo",
        -9.169623748400738
      ],
      [
        "▁cầm",
        -9.169814525504298
      ],
      [
        "▁giết",
        -9.172129621536442
      ],
      [
        "▁05",
        -9.17841610706422
      ],
      [
        "▁rơi",
        -9.179056057622113
      ],
      [
        "▁trị",
        -9.17998174980528
      ],
      [
        "▁gia",
        -9.18105678547871
      ],
      [
        "▁đổi",
        -9.181553232757224
      ],
      [
        "▁xấu",
        -9.182635834264866
      ],
      [
        "▁kính",
        -9.182884210244
      ],
      [
        "▁rừng",
        -9.186578405436022
      ],
      [
        "▁dừng",
        -9.186780418187922
      ],
      [
        "▁ban",
        -9.187749198095547
      ],
      [
        "▁cha",
        -9.18841278861681
      ],
      [
        "▁dậy",
        -9.189625975303176
      ],
      [
        "▁nét",
        -9.191515750004196
      ],
      [
        "▁online",
        -9.191584240164632
      ],
      [
        "▁tủ",
        -9.19291628256427
      ],
      [
        "▁23",
        -9.193903010004483
      ],
      [
        "▁rời",
        -9.194020649698867
      ],
      [
        "▁gió",
        -9.196261411874731
      ],
      [
        "▁02",
        -9.196944152565292
      ],
      [
        "▁phố",
        -9.19757978019712
      ],
      [
        "▁đổ",
        -9.198308410276535
      ],
      [
        "▁nhạc",
        -9.198785274458006
      ],
      [
        "▁03",
        -9.198889502830436
      ],
      [
        "▁ký",
        -9.201947695213848
      ],
      [
        "▁08",
        -9.20427266286153
      ],
      [
        "ô",
        -9.20584845755219
      ],
      [
        "bữa",
        -9.214420635458117
      ],
      [
        "▁2012",
        -9.217092460201316
      ],
      [
        "▁bác",
        -9.220317308258974
      ],
      [
        "▁thanh",
        -9.222597318552744
      ],
      [
        "▁kinh",
        -9.223768127531564
      ],
      [
        "▁sàn",
        -9.2253116216834
      ],
      [
        "▁07",
        -9.22802558715568
      ],
      [
        "▁40",
        -9.228034646448046
      ],
      [
        "▁phá",
        -9.231035767888775
      ],
      [
        "▁hạ",
        -9.23209399813948
      ],
      [
        "▁dần",
        -9.232704564989392
      ],
      [
        "▁tiến",
        -9.235346230061074
      ],
      [
        "▁thoát",
        -9.237467178209952
      ],
      [
        "▁ngừng",
        -9.240509689741923
      ],
      [
        "▁lưng",
        -9.241081222782576
      ],
      [
        "▁tranh",
        -9.24441408419531
      ],
      [
        "▁chia",
        -9.246929330317718
      ],
      [
        "▁lão",
        -9.248387529030998
      ],
      [
        "▁rửa",
        -9.24970151117083
      ],
      [
        "▁trai",
        -9.252072423041088
      ],
      [
        "▁mùi",
        -9.255417573939072
      ],
      [
        "▁đoàn",
        -9.2565397317867
      ],
      [
        "▁kêu",
        -9.258256922287108
      ],
      [
        "▁tòa",
        -9.25995995000084
      ],
      [
        "▁giọng",
        -9.260025146854808
      ],
      [
        "▁họp",
        -9.26019132354576
      ],
      [
        "▁tâm",
        -9.260689942894258
      ],
      [
        "▁cánh",
        -9.26241916524925
      ],
      [
        "▁ngực",
        -9.266088787433675
      ],
      [
        "▁môi",
        -9.26817795848923
      ],
      [
        "▁chi",
        -9.269147311462584
      ],
      [
        "▁06",
        -9.269501917474525
      ],
      [
        "▁kém",
        -9.274297205025736
      ],
      [
        "▁tường",
        -9.274596976652196
      ],
      [
        "▁trồng",
        -9.275756112485873
      ],
      [
        "▁cháy",
        -9.279543733736118
      ],
      [
        "▁rau",
        -9.284550830669216
      ],
      [
        "▁cảnh",
        -9.28630603480176
      ],
      [
        "▁ngàn",
        -9.286958166027556
      ],
      [
        "▁khí",
        -9.290890322654842
      ],
      [
        "▁hồi",
        -9.29089468084306
      ],
      [
        "▁gấp",
        -9.292523627718149
      ],
      [
        "▁tùy",
        -9.29351821316772
      ],
      [
        "▁cơm",
        -9.294228365565528
      ],
      [
        "▁nội",
        -9.29430162288755
      ],
      [
        "▁buồn",
        -9.294446922582615
      ],
      [
        "▁ko",
        -9.295196309622948
      ],
      [
        "▁chuẩn",
        -9.297622003205529
      ],
      [
        "▁bất",
        -9.305514183972466
      ],
      [
        "▁đám",
        -9.307257664162517
      ],
      [
        "▁chiếm",
        -9.310250847267604
      ],
      [
        "▁đảng",
        -9.316205409533348
      ],
      [
        "▁cơn",
        -9.316900475133997
      ],
      [
        "▁kỹ",
        -9.319771168035492
      ],
      [
        "▁rút",
        -9.321073057662767
      ],
      [
        "▁hạt",
        -9.322155503433487
      ],
      [
        "▁hồ",
        -9.323919440724332
      ],
      [
        "▁phí",
        -9.327451620958762
      ],
      [
        "▁nộp",
        -9.332284840261512
      ],
      [
        "▁hẳn",
        -9.33731266548196
      ],
      [
        "▁nợ",
        -9.33739362337498
      ],
      [
        "▁04",
        -9.338110614116603
      ],
      [
        "▁chú",
        -9.3387307535196
      ],
      [
        "▁lương",
        -9.3403939317654
      ],
      [
        "▁án",
        -9.34354470195224
      ],
      [
        "▁trông",
        -9.343823051348869
      ],
      [
        "▁cơ",
        -9.34850962162532
      ],
      [
        "▁đa",
        -9.349247825325651
      ],
      [
        "▁cung",
        -9.35045045338934
      ],
      [
        "▁tắm",
        -9.35331788945228
      ],
      [
        "▁tải",
        -9.356375606687012
      ],
      [
        "▁đoạn",
        -9.357094493174966
      ],
      [
        "▁26",
        -9.360587419193756
      ],
      [
        "▁may",
        -9.361616474726317
      ],
      [
        "▁khóc",
        -9.363597962128544
      ],
      [
        "▁ngoại",
        -9.365463974600395
      ],
      [
        "▁nỗi",
        -9.366980710577122
      ],
      [
        "▁sẵn",
        -9.36988612722718
      ],
      [
        "▁sửa",
        -9.370150827048194
      ],
      [
        "▁tr",
        -9.370707261424965
      ],
      [
        "▁đạo",
        -9.371208983129977
      ],
      [
        "ụ",
        -9.37601838620644
      ],
      [
        "▁gốc",
        -9.376367810263512
      ],
      [
        "▁giường",
        -9.380041684846908
      ],
      [
        "▁cứu",
        -9.381323395475112
      ],
      [
        "▁bậc",
        -9.384501405064553
      ],
      [
        "▁cưới",
        -9.384559487227532
      ],
      [
        "▁túi",
        -9.386178567816478
      ],
      [
        "▁hồng",
        -9.389725680781575
      ],
      [
        "▁giàu",
        -9.390722783211212
      ],
      [
        "▁xương",
        -9.391147584812602
      ],
      [
        "▁gà",
        -9.393714680929024
      ],
      [
        "▁28",
        -9.399986730278336
      ],
      [
        "▁27",
        -9.40357661514479
      ],
      [
        "▁kem",
        -9.404733900881254
      ],
      [
        "▁thẳng",
        -9.405808229602096
      ],
      [
        "▁dịp",
        -9.409710554662189
      ],
      [
        "▁lợi",
        -9.414667737333712
      ],
      [
        "▁trà",
        -9.417737991385971
      ],
      [
        "▁2011",
        -9.41933942686968
      ],
      [
        "▁hè",
        -9.41983196749791
      ],
      [
        "▁thở",
        -9.420103514480576
      ],
      [
        "▁tươi",
        -9.420158799103463
      ],
      [
        "▁luật",
        -9.420395423596604
      ],
      [
        "▁tiểu",
        -9.422755025049131
      ],
      [
        "▁gan",
        -9.42565589734255
      ],
      [
        "▁hội",
        -9.42794460892774
      ],
      [
        "▁phường",
        -9.42976491574949
      ],
      [
        "▁ôm",
        -9.430279896557549
      ],
      [
        "▁góc",
        -9.430598236725976
      ],
      [
        "ờ",
        -9.435690542434909
      ],
      [
        "▁cố",
        -9.439167210864866
      ],
      [
        "▁sắc",
        -9.4405560729288
      ],
      [
        "▁truyền",
        -9.442859756204106
      ],
      [
        "▁mày",
        -9.44375147391256
      ],
      [
        "▁cặp",
        -9.444515532803337
      ],
      [
        "▁mát",
        -9.445973271792951
      ],
      [
        "▁làng",
        -9.447631532210782
      ],
      [
        "▁nghèo",
        -9.45051893394134
      ],
      [
        "▁quanh",
        -9.450519943302083
      ],
      [
        "▁đẩy",
        -9.452181277150816
      ],
      [
        "▁bốn",
        -9.453673056652978
      ],
      [
        "▁sát",
        -9.45428978522403
      ],
      [
        "▁vườn",
        -9.460765931861618
      ],
      [
        "▁đón",
        -9.461122536292953
      ],
      [
        "▁tạm",
        -9.467462877911602
      ],
      [
        "▁vai",
        -9.469095153676973
      ],
      [
        "▁tai",
        -9.469203606282884
      ],
      [
        "▁nha",
        -9.472064207163095
      ],
      [
        "▁phong",
        -9.474912269668907
      ],
      [
        "▁lẫn",
        -9.477390426136276
      ],
      [
        "▁dịch",
        -9.48186497624052
      ],
      [
        "▁định",
        -9.485298009054087
      ],
      [
        "▁khuyên",
        -9.485576100740325
      ],
      [
        "▁thương",
        -9.487048541666184
      ],
      [
        "▁giỏi",
        -9.491827019857318
      ],
      [
        "▁giây",
        -9.49307938150033
      ],
      [
        "▁khối",
        -9.493344401336005
      ],
      [
        "▁vật",
        -9.496504825085555
      ],
      [
        "▁ấm",
        -9.500503840332954
      ],
      [
        "▁dấu",
        -9.50205397420761
      ],
      [
        "▁video",
        -9.505063658901983
      ],
      [
        "▁xây",
        -9.505068376504596
      ],
      [
        "▁lưu",
        -9.507903141652854
      ],
      [
        "▁29",
        -9.51227033900299
      ],
      [
        "▁bố",
        -9.51661399761785
      ],
      [
        "▁thơ",
        -9.517347828499886
      ],
      [
        "▁già",
        -9.518189628529104
      ],
      [
        "▁phi",
        -9.519650904288934
      ],
      [
        "▁lối",
        -9.520711455655864
      ],
      [
        "nêu",
        -9.521135327553331
      ],
      [
        "ơi",
        -9.522658813516706
      ],
      [
        "▁60",
        -9.522776967546507
      ],
      [
        "▁chảy",
        -9.523325865808635
      ],
      [
        "▁2010",
        -9.529475671736373
      ],
      [
        "▁tắt",
        -9.53026554807535
      ],
      [
        "ỡ",
        -9.532742722062336
      ],
      [
        "▁thiệt",
        -9.5341303587981
      ],
      [
        "▁đề",
        -9.535044643878566
      ],
      [
        "▁ngược",
        -9.53552652191158
      ],
      [
        "v",
        -9.539315794042986
      ],
      [
        "▁gói",
        -9.546707130607915
      ],
      [
        "▁bãi",
        -9.549873092500633
      ],
      [
        "▁chợ",
        -9.551601360859806
      ],
      [
        "▁trao",
        -9.553614962125058
      ],
      [
        "▁thắng",
        -9.555232352456782
      ],
      [
        "▁bờ",
        -9.55729487664691
      ],
      [
        "▁động",
        -9.558819977384172
      ],
      [
        "▁pháp",
        -9.5600749361454
      ],
      [
        "▁ngang",
        -9.560931465960357
      ],
      [
        "▁tuy",
        -9.562431935420529
      ],
      [
        "▁hưởng",
        -9.562885658806666
      ],
      [
        "▁lửa",
        -9.563992278810776
      ],
      [
        "▁tỉ",
        -9.567997051653837
      ],
      [
        "▁tuyệt",
        -9.570437146108532
      ],
      [
        "▁hộp",
        -9.57053938734846
      ],
      [
        "▁che",
        -9.574620727468144
      ],
      [
        "▁web",
        -9.5747271146105
      ],
      [
        "▁tu",
        -9.574900345194424
      ],
      [
        "▁loài",
        -9.575716816186658
      ],
      [
        "▁chào",
        -9.576517278280004
      ],
      [
        "▁lộ",
        -9.578009753070972
      ],
      [
        "▁thơm",
        -9.587473997750129
      ],
      [
        "▁ngài",
        -9.587730346819187
      ],
      [
        "▁trứng",
        -9.5894272226436
      ],
      [
        "▁bật",
        -9.590304588283628
      ],
      [
        "▁tiêu",
        -9.593284024230735
      ],
      [
        "▁thằng",
        -9.594451762910923
      ],
      [
        "▁tờ",
        -9.595808331547705
      ],
      [
        "▁khớp",
        -9.597134179793771
      ],
      [
        "▁sơn",
        -9.598372764512632
      ],
      [
        "▁vết",
        -9.598795084528447
      ],
      [
        "▁bột",
        -9.600422357098171
      ],
      [
        "▁đáp",
        -9.60549594227144
      ],
      [
        "▁mong",
        -9.606060646477475
      ],
      [
        "▁m2",
        -9.607646419312028
      ],
      [
        "▁lông",
        -9.608008242512392
      ],
      [
        "▁phóng",
        -9.608942217092704
      ],
      [
        "▁yếu",
        -9.609159015940843
      ],
      [
        "▁k",
        -9.611463685616217
      ],
      [
        "▁xét",
        -9.614679242945233
      ],
      [
        "▁ma",
        -9.61659763036957
      ],
      [
        "▁thông",
        -9.61733207259163
      ],
      [
        "▁nấu",
        -9.619130394899258
      ],
      [
        "ổ",
        -9.622973541010454
      ],
      [
        "▁quần",
        -9.624009429138106
      ],
      [
        "▁lực",
        -9.624354877871715
      ],
      [
        "▁hợp",
        -9.626353452234708
      ],
      [
        "▁gắn",
        -9.62750951189646
      ],
      [
        "▁xuất",
        -9.63235974932206
      ],
      [
        "ẽ",
        -9.633622273215316
      ],
      [
        "▁chó",
        -9.634270061064184
      ],
      [
        "▁mỡ",
        -9.634905380361753
      ],
      [
        "▁tổng",
        -9.635100456363956
      ],
      [
        "▁mãi",
        -9.63688952811396
      ],
      [
        "▁kho",
        -9.642912385662203
      ],
      [
        "▁trừ",
        -9.64299050133592
      ],
      [
        "▁tuyển",
        -9.649897758675865
      ],
      [
        "▁hại",
        -9.65253522501237
      ],
      [
        "▁não",
        -9.65731491422402
      ],
      [
        "▁vặt",
        -9.657706855733132
      ],
      [
        "▁nhắc",
        -9.660353263242513
      ],
      [
        "chục",
        -9.663293813428504
      ],
      [
        "▁nỗ",
        -9.667916797707178
      ],
      [
        "▁tư",
        -9.669613724546696
      ],
      [
        "▁tội",
        -9.670681278536408
      ],
      [
        "▁quan",
        -9.673167546924844
      ],
      [
        "▁thoáng",
        -9.677404247525084
      ],
      [
        "▁nhấn",
        -9.681536980759647
      ],
      [
        "▁kênh",
        -9.68400637376144
      ],
      [
        "▁vitamin",
        -9.684151796173348
      ],
      [
        "▁đàn",
        -9.685932939601097
      ],
      [
        "▁nhắn",
        -9.687028795883696
      ],
      [
        "ớ",
        -9.68808883839351
      ],
      [
        "l",
        -9.689068394783504
      ],
      [
        "▁bò",
        -9.69020003554369
      ],
      [
        "▁giành",
        -9.690949112898958
      ],
      [
        "▁bắn",
        -9.693762078437418
      ],
      [
        "▁vỏ",
        -9.695245190985933
      ],
      [
        "▁mơ",
        -9.695725564459872
      ],
      [
        "▁băng",
        -9.696733999447886
      ],
      [
        "▁thần",
        -9.698885853449978
      ],
      [
        "▁nhảy",
        -9.702514751560477
      ],
      [
        "▁31",
        -9.703030171061434
      ],
      [
        "▁ngã",
        -9.704385254136229
      ],
      [
        "▁camera",
        -9.709636924141202
      ],
      [
        "▁âm",
        -9.715049788215907
      ],
      [
        "▁lỗ",
        -9.719243014304336
      ],
      [
        "▁bền",
        -9.719544578423658
      ],
      [
        "▁cộng",
        -9.723214657294411
      ],
      [
        "▁thể",
        -9.725467133575176
      ],
      [
        "▁khai",
        -9.726243676656866
      ],
      [
        "▁nghìn",
        -9.72771272190006
      ],
      [
        "▁dưỡng",
        -9.728127965409676
      ],
      [
        "▁2009",
        -9.730351363497356
      ],
      [
        "▁lọc",
        -9.731734075356652
      ],
      [
        "▁nhựa",
        -9.734027653012989
      ],
      [
        "▁pha",
        -9.735274139258378
      ],
      [
        "▁mềm",
        -9.735975280329187
      ],
      [
        "▁an",
        -9.736257528784698
      ],
      [
        "▁quy",
        -9.73745142388868
      ],
      [
        "▁vỡ",
        -9.740021099052775
      ],
      [
        "▁sổ",
        -9.74179367167544
      ],
      [
        "▁văn",
        -9.745935348206864
      ],
      [
        "▁chiếu",
        -9.746699640561104
      ],
      [
        "▁quê",
        -9.752092386957475
      ],
      [
        "▁tấn",
        -9.753223211232994
      ],
      [
        "▁gọn",
        -9.756404843869296
      ],
      [
        "▁giày",
        -9.756525633739278
      ],
      [
        "▁xử",
        -9.758356893352856
      ],
      [
        "ái",
        -9.764548558867352
      ],
      [
        "▁tưởng",
        -9.764932841670651
      ],
      [
        "▁bụi",
        -9.765200177912378
      ],
      [
        "nh",
        -9.767722814536445
      ],
      [
        "▁cứng",
        -9.767886040739333
      ],
      [
        "▁thủ",
        -9.768044410532989
      ],
      [
        "▁70",
        -9.768401489951016
      ],
      [
        "k",
        -9.770257542775765
      ],
      [
        "▁cấm",
        -9.770689660494362
      ],
      [
        "▁kịp",
        -9.772399519169332
      ],
      [
        "▁độc",
        -9.778153548566
      ],
      [
        "▁phương",
        -9.778170280996136
      ],
      [
        "▁chín",
        -9.780644626868808
      ],
      [
        "ể",
        -9.782206000968207
      ],
      [
        "▁chứng",
        -9.78289539067349
      ],
      [
        "▁hứa",
        -9.78848579791737
      ],
      [
        "▁trung",
        -9.78982801457098
      ],
      [
        "▁sóng",
        -9.790059803364487
      ],
      [
        "d",
        -9.791144871603136
      ],
      [
        "▁quen",
        -9.791628096761814
      ],
      [
        "▁thủy",
        -9.792188570539755
      ],
      [
        "▁hẹn",
        -9.7929579725114
      ],
      [
        "▁nút",
        -9.794514639081877
      ],
      [
        "▁trọn",
        -9.794801401742747
      ],
      [
        "▁tiết",
        -9.795312400931044
      ],
      [
        "▁tiệc",
        -9.795973934897736
      ],
      [
        "▁đợi",
        -9.79636535998564
      ],
      [
        "▁chăn",
        -9.797167690717608
      ],
      [
        "▁tổ",
        -9.798922569004093
      ],
      [
        "▁tan",
        -9.8025084571937
      ],
      [
        "▁buộc",
        -9.806742977965278
      ],
      [
        "▁ép",
        -9.810073191077016
      ],
      [
        "▁thua",
        -9.810844073705804
      ],
      [
        "▁cột",
        -9.8116662023161
      ],
      [
        "ào",
        -9.8124204612096
      ],
      [
        "▁nổ",
        -9.812852599664946
      ],
      [
        "▁kín",
        -9.81512240729958
      ],
      [
        "▁vua",
        -9.817311892245703
      ],
      [
        "▁đợt",
        -9.818631737498484
      ],
      [
        "▁pin",
        -9.820200055213816
      ],
      [
        "▁mảnh",
        -9.820307643554369
      ],
      [
        "▁cổng",
        -9.821164847606116
      ],
      [
        "▁treo",
        -9.821381268841508
      ],
      [
        "▁quốc",
        -9.8254531560684
      ],
      [
        "▁tỏ",
        -9.83173273255963
      ],
      [
        "▁sắt",
        -9.832357599973678
      ],
      [
        "▁tù",
        -9.833777966658532
      ],
      [
        "▁vải",
        -9.83462031722491
      ],
      [
        "▁ngờ",
        -9.835952669332
      ],
      [
        "▁trưa",
        -9.836310061282257
      ],
      [
        "▁tốn",
        -9.83760614542369
      ],
      [
        "▁khung",
        -9.837742716798354
      ],
      [
        "▁xưa",
        -9.83970413366369
      ],
      [
        "▁ống",
        -9.84197018303486
      ],
      [
        "▁hương",
        -9.846943428834493
      ],
      [
        "▁thép",
        -9.846953158531582
      ],
      [
        "▁thưởng",
        -9.847199531917084
      ],
      [
        "▁mục",
        -9.848562521785883
      ],
      [
        "▁sứ",
        -9.848810560050335
      ],
      [
        "▁tử",
        -9.851406717711503
      ],
      [
        "▁hôn",
        -9.852148757734096
      ],
      [
        "▁thực",
        -9.853011203871972
      ],
      [
        "▁súng",
        -9.854003209468054
      ],
      [
        "▁ngón",
        -9.859002664432785
      ],
      [
        "▁mịn",
        -9.860055912005464
      ],
      [
        "▁chùa",
        -9.86123562924366
      ],
      [
        "▁vẽ",
        -9.865226298621296
      ],
      [
        "▁ngắm",
        -9.86835692592274
      ],
      [
        "▁kết",
        -9.868555253507852
      ],
      [
        "▁đốt",
        -9.868617902191705
      ],
      [
        "▁yên",
        -9.869763562159145
      ],
      [
        "▁tung",
        -9.871813545505429
      ],
      [
        "▁khổ",
        -9.872826609622312
      ],
      [
        "▁đập",
        -9.873653638744694
      ],
      [
        "▁hạng",
        -9.874280781862144
      ],
      [
        "▁hành",
        -9.882083161659509
      ],
      [
        "▁thừa",
        -9.883601467735009
      ],
      [
        "á",
        -9.886768535710384
      ],
      [
        "▁cà",
        -9.88796698090364
      ],
      [
        "▁tái",
        -9.890293292863811
      ],
      [
        "▁tài",
        -9.895128430201265
      ],
      [
        "▁lừa",
        -9.89749224234474
      ],
      [
        "▁khúc",
        -9.89913395751847
      ],
      [
        "▁2008",
        -9.89922549873458
      ],
      [
        "▁khởi",
        -9.901518927914037
      ],
      [
        "▁90",
        -9.905355098285314
      ],
      [
        "▁200",
        -9.905850060649108
      ],
      [
        "▁lô",
        -9.907482367541254
      ],
      [
        "▁đo",
        -9.91140205165403
      ],
      [
        "▁35",
        -9.911662589276448
      ],
      [
        "▁xoay",
        -9.91236327008816
      ],
      [
        "▁trốn",
        -9.912434945943222
      ],
      [
        "▁thức",
        -9.912636751903092
      ],
      [
        "▁80",
        -9.912764788940205
      ],
      [
        "▁thả",
        -9.913307967621389
      ],
      [
        "▁lịch",
        -9.91605335562911
      ],
      [
        "▁đậu",
        -9.918873735495136
      ],
      [
        "▁địa",
        -9.919584252943096
      ],
      [
        "▁ẩm",
        -9.920762359330414
      ],
      [
        "▁suy",
        -9.921821895065984
      ],
      [
        "▁sư",
        -9.92388638585382
      ],
      [
        "▁bão",
        -9.924213408008772
      ],
      [
        "▁chúc",
        -9.9266948287678
      ],
      [
        "ê",
        -9.93010553465063
      ],
      [
        "▁lái",
        -9.930824438583697
      ],
      [
        "▁xếp",
        -9.933289256497572
      ],
      [
        "▁chuột",
        -9.934449319128472
      ],
      [
        "▁2019",
        -9.936718287498708
      ],
      [
        "▁ngăn",
        -9.936949372652306
      ],
      [
        "▁đeo",
        -9.937743022080106
      ],
      [
        "▁tết",
        -9.938190756931206
      ],
      [
        "▁bớt",
        -9.9412344479852
      ],
      [
        "▁xuyên",
        -9.941941760747047
      ],
      [
        "▁xóa",
        -9.947236457823545
      ],
      [
        "▁quỹ",
        -9.949158493235778
      ],
      [
        "▁đào",
        -9.95099936894226
      ],
      [
        "ngọn",
        -9.952278360877036
      ],
      [
        "▁lệnh",
        -9.953117020480478
      ],
      [
        "▁mái",
        -9.95607932549962
      ],
      [
        "▁truy",
        -9.95619537594315
      ],
      [
        "▁miếng",
        -9.95883002468882
      ],
      [
        "▁phiên",
        -9.960469500461516
      ],
      [
        "▁diện",
        -9.960785215824828
      ],
      [
        "▁hữu",
        -9.961024710340691
      ],
      [
        "▁trống",
        -9.962090681848858
      ],
      [
        "▁trúng",
        -9.962378560850595
      ],
      [
        "▁song",
        -9.964080112315823
      ],
      [
        "▁nấm",
        -9.965245358300855
      ],
      [
        "▁cướp",
        -9.966906012644216
      ],
      [
        "▁phạt",
        -9.967085265270882
      ],
      [
        "▁thượng",
        -9.967892052989203
      ],
      [
        "▁tớ",
        -9.968421293327802
      ],
      [
        "▁bạc",
        -9.968524087622557
      ],
      [
        "▁500",
        -9.96908252752633
      ],
      [
        "▁lao",
        -9.96951006558201
      ],
      [
        "▁thú",
        -9.97465403242188
      ],
      [
        "▁kim",
        -9.977734638459127
      ],
      [
        "▁nhỉ",
        -9.977892697927237
      ],
      [
        "ệt",
        -9.977968435930228
      ],
      [
        "▁45",
        -9.97832904163811
      ],
      [
        "▁béo",
        -9.979318592120793
      ],
      [
        "▁muối",
        -9.98224245443002
      ],
      [
        "sáu",
        -9.982820477965554
      ],
      [
        "▁đĩa",
        -9.983136389653197
      ],
      [
        "▁gạo",
        -9.983579055226157
      ],
      [
        "▁tẩy",
        -9.983764759301025
      ],
      [
        "▁trôi",
        -9.983969658351542
      ],
      [
        "▁màn",
        -9.984412041414656
      ],
      [
        "▁ruột",
        -9.984540321186444
      ],
      [
        "▁xứ",
        -9.98643529114782
      ],
      [
        "đắt",
        -9.988174001952125
      ],
      [
        "▁tròn",
        -9.989373162380298
      ],
      [
        "▁rác",
        -9.99376664785712
      ],
      [
        "▁mươi",
        -9.994990279035695
      ],
      [
        "▁ly",
        -9.995123367887508
      ],
      [
        "▁đỉnh",
        -9.995272794186503
      ],
      [
        "ó",
        -9.995473850751752
      ],
      [
        "▁đệ",
        -9.997411817006007
      ],
      [
        "▁hằng",
        -9.997637749326802
      ],
      [
        "▁chạm",
        -9.997797925297805
      ],
      [
        "▁thâm",
        -9.999452138001876
      ],
      [
        "▁liệu",
        -9.999592152455836
      ],
      [
        "▁gã",
        -9.999712626212547
      ],
      [
        "chở",
        -9.999731896140728
      ],
      [
        "▁váy",
        -10.001233026290322
      ],
      [
        "▁phủ",
        -10.006542953232453
      ],
      [
        "▁vi",
        -10.012465694197209
      ],
      [
        "▁vững",
        -10.012679874076392
      ],
      [
        "b",
        -10.013704236025072
      ],
      [
        "▁thận",
        -10.0143174140743
      ],
      [
        "▁tướng",
        -10.016776805851151
      ],
      [
        "▁dày",
        -10.019482065081109
      ],
      [
        "▁thuyền",
        -10.019627694998787
      ],
      [
        "▁chim",
        -10.020204545613105
      ],
      [
        "▁tham",
        -10.02379261916412
      ],
      [
        "▁nám",
        -10.02409718243213
      ],
      [
        "▁trình",
        -10.02413910093346
      ],
      [
        "▁bông",
        -10.02490391599271
      ],
      [
        "▁tao",
        -10.024936632563584
      ],
      [
        "▁dán",
        -10.02901862121965
      ],
      [
        "▁mí",
        -10.029953757755464
      ],
      [
        "▁ảo",
        -10.034257901414122
      ],
      [
        "▁rao",
        -10.035884411416784
      ],
      [
        "▁sốt",
        -10.0362668224309
      ],
      [
        "▁xăng",
        -10.040753737513509
      ],
      [
        "▁vội",
        -10.04082133046442
      ],
      [
        "▁cụ",
        -10.04173926593817
      ],
      [
        "▁km",
        -10.041798316997848
      ],
      [
        "▁tức",
        -10.045267401296032
      ],
      [
        "▁đòi",
        -10.046927982572385
      ],
      [
        "mọc",
        -10.047720344971612
      ],
      [
        "▁viện",
        -10.04794757760585
      ],
      [
        "▁giảng",
        -10.049108618594625
      ],
      [
        "▁nối",
        -10.052477182283235
      ],
      [
        "▁sim",
        -10.052932105596826
      ],
      [
        "▁phun",
        -10.05476737737719
      ],
      [
        "ủ",
        -10.056045123941184
      ],
      [
        "▁nhiệt",
        -10.056714488355883
      ],
      [
        "▁file",
        -10.05866796512598
      ],
      [
        "▁vang",
        -10.062337347821412
      ],
      [
        "▁hoàn",
        -10.065719129180952
      ],
      [
        "▁lò",
        -10.06862885134646
      ],
      [
        "▁mỏng",
        -10.068697314297385
      ],
      [
        "▁nhiễm",
        -10.068702739144848
      ],
      [
        "▁hiệp",
        -10.073752176790656
      ],
      [
        "▁tiếc",
        -10.077900406795113
      ],
      [
        "▁vạn",
        -10.07796632297334
      ],
      [
        "▁liên",
        -10.078664700542792
      ],
      [
        "▁sở",
        -10.079967624839847
      ],
      [
        "▁thảm",
        -10.08007120702324
      ],
      [
        "▁kg",
        -10.080978338510567
      ],
      [
        "▁giấc",
        -10.081591098972956
      ],
      [
        "▁đài",
        -10.08400814822016
      ],
      [
        "▁co",
        -10.084631389983585
      ],
      [
        "▁cát",
        -10.085766794845735
      ],
      [
        "▁tách",
        -10.087601464772776
      ],
      [
        "▁ga",
        -10.088112908965206
      ],
      [
        "▁ưa",
        -10.088498804221752
      ],
      [
        "▁xuân",
        -10.088807209945324
      ],
      [
        "▁bấm",
        -10.089390700478964
      ],
      [
        "▁cú",
        -10.094536602531957
      ],
      [
        "▁cỏ",
        -10.094560772154392
      ],
      [
        "ác",
        -10.095614320227952
      ],
      [
        "▁300",
        -10.099176752494191
      ],
      [
        "▁hạn",
        -10.10107623579722
      ],
      [
        "▁hóa",
        -10.10435404708582
      ],
      [
        "▁gương",
        -10.109986986406772
      ],
      [
        "▁chuỗi",
        -10.111126784287327
      ],
      [
        "▁loa",
        -10.111815657336315
      ],
      [
        "bám",
        -10.111973607564986
      ],
      [
        "▁chiến",
        -10.11213782055557
      ],
      [
        "▁phái",
        -10.112802775776904
      ],
      [
        "▁bơi",
        -10.11461361995882
      ],
      [
        "▁trần",
        -10.117620328030132
      ],
      [
        "nhũng",
        -10.119141551164573
      ],
      [
        "▁2007",
        -10.119592766312769
      ],
      [
        "▁ẩn",
        -10.120150071415878
      ],
      [
        "▁bổ",
        -10.120460825956782
      ],
      [
        "▁cờ",
        -10.12386303351462
      ],
      [
        "▁dính",
        -10.126166688398389
      ],
      [
        "▁sợi",
        -10.126755875470836
      ],
      [
        "▁nướng",
        -10.128081263872724
      ],
      [
        "▁la",
        -10.12824476273024
      ],
      [
        "▁chế",
        -10.129094033109894
      ],
      [
        "▁ghé",
        -10.130329665704185
      ],
      [
        "▁dáng",
        -10.131528252135196
      ],
      [
        "▁thiên",
        -10.131867188580216
      ],
      [
        "▁góp",
        -10.132281871398064
      ],
      [
        "▁tia",
        -10.132933101132815
      ],
      [
        "▁liều",
        -10.13394631154901
      ],
      [
        "▁đặc",
        -10.135524189393587
      ],
      [
        "▁internet",
        -10.136357831588787
      ],
      [
        "▁chặn",
        -10.137395340888013
      ],
      [
        "▁dương",
        -10.13833655217271
      ],
      [
        "x",
        -10.139818602867216
      ],
      [
        "▁săn",
        -10.139937530483154
      ],
      [
        "▁bẩn",
        -10.141989433608323
      ],
      [
        "▁chương",
        -10.150845049027504
      ],
      [
        "▁lâm",
        -10.15181473539115
      ],
      [
        "ẻ",
        -10.15190875397357
      ],
      [
        "▁chu",
        -10.152103045736943
      ],
      [
        "▁32",
        -10.152233713480138
      ],
      [
        "▁tân",
        -10.15371473668772
      ],
      [
        "▁áp",
        -10.157309365927494
      ],
      [
        "▁táo",
        -10.158248475532844
      ],
      [
        "▁danh",
        -10.159900124541906
      ],
      [
        "▁say",
        -10.160480904893756
      ],
      [
        "▁net",
        -10.161763316403189
      ],
      [
        "▁hậu",
        -10.16219917278444
      ],
      [
        "▁đoán",
        -10.16359119145822
      ],
      [
        "▁tour",
        -10.164948132560388
      ],
      [
        "▁đậm",
        -10.166917059826991
      ],
      [
        "▁đức",
        -10.168376209856586
      ],
      [
        "▁lành",
        -10.16887180570526
      ],
      [
        "▁mờ",
        -10.170769477230234
      ],
      [
        "▁hiếm",
        -10.173688508231654
      ],
      [
        "▁tựa",
        -10.17427939428652
      ],
      [
        "▁chả",
        -10.175113623417678
      ],
      [
        "▁bát",
        -10.179766278454151
      ],
      [
        "▁mừng",
        -10.18197928566352
      ],
      [
        "▁ngọt",
        -10.182338396137416
      ],
      [
        "ư",
        -10.185411195595254
      ],
      [
        "▁khăn",
        -10.185719536764898
      ],
      [
        "▁minh",
        -10.18733514540646
      ],
      [
        "▁thấm",
        -10.1917657388048
      ],
      [
        "▁nương",
        -10.19207236971856
      ],
      [
        "▁sơ",
        -10.192386642960097
      ],
      [
        "▁bảy",
        -10.19238863136007
      ],
      [
        "▁hài",
        -10.192765845669529
      ],
      [
        "▁24h",
        -10.195738144518272
      ],
      [
        "▁dứt",
        -10.1964091047058
      ],
      [
        "▁ha",
        -10.20557277949152
      ],
      [
        "▁trộm",
        -10.205695830453983
      ],
      [
        "▁trại",
        -10.20721346868997
      ],
      [
        "▁lũ",
        -10.207347392651904
      ],
      [
        "▁lát",
        -10.209094004509986
      ],
      [
        "2",
        -10.209867604110157
      ],
      [
        "▁36",
        -10.211073008823078
      ],
      [
        "▁canh",
        -10.212887311732263
      ],
      [
        "▁mạch",
        -10.213491944461287
      ],
      [
        "▁hả",
        -10.21492382509079
      ],
      [
        "▁link",
        -10.21509757063663
      ],
      [
        "▁mực",
        -10.218325265252089
      ],
      [
        "▁than",
        -10.220548783744755
      ],
      [
        "▁đuổi",
        -10.22119134364166
      ],
      [
        "▁thợ",
        -10.22125569345175
      ],
      [
        "▁khoa",
        -10.221393819637756
      ],
      [
        "dọc",
        -10.22147809382117
      ],
      [
        "▁diệt",
        -10.221488235185111
      ],
      [
        "▁bú",
        -10.222656298342768
      ],
      [
        "▁lính",
        -10.224731859935147
      ],
      [
        "mỉm",
        -10.225183541155168
      ],
      [
        "▁tệ",
        -10.22656663630142
      ],
      [
        "▁thùng",
        -10.22740520453213
      ],
      [
        "▁đâm",
        -10.228379650850398
      ],
      [
        "▁trưởng",
        -10.2297060375835
      ],
      [
        "▁hải",
        -10.232412511574845
      ],
      [
        "▁hầm",
        -10.233432558419883
      ],
      [
        "▁mây",
        -10.233463680104173
      ],
      [
        "▁tháo",
        -10.234826725725569
      ],
      [
        "▁cam",
        -10.235636640797418
      ],
      [
        "▁2020",
        -10.237105024821162
      ],
      [
        "▁tượng",
        -10.24182636272461
      ],
      [
        "tám",
        -10.246224126981756
      ],
      [
        "▁căng",
        -10.24684634212136
      ],
      [
        "▁tiên",
        -10.247189809808022
      ],
      [
        "▁nghi",
        -10.247915437217255
      ],
      [
        "1",
        -10.249150858825688
      ],
      [
        "▁gối",
        -10.24972868663538
      ],
      [
        "▁điên",
        -10.25018789206317
      ],
      [
        "▁dược",
        -10.250291712229927
      ],
      [
        "▁cục",
        -10.251723447424986
      ],
      [
        "▁trò",
        -10.25270713603412
      ],
      [
        "▁visa",
        -10.254773305466076
      ],
      [
        "▁võ",
        -10.255043197607906
      ],
      [
        "ì",
        -10.255653157133883
      ],
      [
        "▁lau",
        -10.258978797183325
      ],
      [
        "▁ng",
        -10.258999495189236
      ],
      [
        "▁cựu",
        -10.26143520705754
      ],
      [
        "▁ngõ",
        -10.261630723746324
      ],
      [
        "giấu",
        -10.261679212470543
      ],
      [
        "▁nạn",
        -10.263455710500285
      ],
      [
        "sẹo",
        -10.263655455734682
      ],
      [
        "▁mô",
        -10.265195329057322
      ],
      [
        "▁củ",
        -10.26929387523368
      ],
      [
        "▁nhịp",
        -10.270878186263053
      ],
      [
        "▁cất",
        -10.274414075825304
      ],
      [
        "▁giãn",
        -10.274451674530727
      ],
      [
        "▁loạt",
        -10.27472233860581
      ],
      [
        "▁trộn",
        -10.275317048994406
      ],
      [
        "nại",
        -10.275769033299664
      ],
      [
        "▁tinh",
        -10.278124316002817
      ],
      [
        "▁nầy",
        -10.278460021592585
      ],
      [
        "▁nhầm",
        -10.278488880085945
      ],
      [
        "▁gạch",
        -10.278786746137149
      ],
      [
        "▁tác",
        -10.27896790534199
      ],
      [
        "▁ngựa",
        -10.27940206384712
      ],
      [
        "▁bọc",
        -10.279425334166168
      ],
      [
        "gật",
        -10.279910361799576
      ],
      [
        "▁nghệ",
        -10.281404046647468
      ],
      [
        "cúi",
        -10.281445560535458
      ],
      [
        "▁trạm",
        -10.283879366888243
      ],
      [
        "▁nhãn",
        -10.285123904176729
      ],
      [
        "▁mâ",
        -10.285355196441175
      ],
      [
        "▁ngọc",
        -10.28729125576889
      ],
      [
        "▁khỏe",
        -10.28818196503166
      ],
      [
        "▁dừa",
        -10.2888200964439
      ],
      [
        "▁thắt",
        -10.291743516951907
      ],
      [
        "▁lúa",
        -10.291767240612083
      ],
      [
        "▁chức",
        -10.291954590862064
      ],
      [
        "▁click",
        -10.291997549122003
      ],
      [
        "▁ném",
        -10.29204316688018
      ],
      [
        "▁tông",
        -10.294397996657166
      ],
      [
        "▁đế",
        -10.294589465561597
      ],
      [
        "▁bia",
        -10.294723337311682
      ],
      [
        "▁mê",
        -10.296009687051102
      ],
      [
        "▁of",
        -10.29814922489794
      ],
      [
        "▁th",
        -10.299118719390329
      ],
      [
        "▁bôi",
        -10.299934870841993
      ],
      [
        "▁bắc",
        -10.300081716365783
      ],
      [
        "▁ph",
        -10.300686185911603
      ],
      [
        "ăn",
        -10.3009439077268
      ],
      [
        "▁thánh",
        -10.30219670235109
      ],
      [
        "▁tôn",
        -10.302614733893172
      ],
      [
        "▁tôm",
        -10.303626606128615
      ],
      [
        "▁đỡ",
        -10.303830860261074
      ],
      [
        "▁muộn",
        -10.304223603964903
      ],
      [
        "▁buông",
        -10.305401549082315
      ],
      [
        "▁lạc",
        -10.305589072882254
      ],
      [
        "▁cắm",
        -10.306071954496735
      ],
      [
        "▁ngại",
        -10.307718398994329
      ],
      [
        "▁tất",
        -10.308461603882291
      ],
      [
        "▁chấm",
        -10.308700003199034
      ],
      [
        "▁hư",
        -10.309340509165931
      ],
      [
        "▁bù",
        -10.309471140354203
      ],
      [
        "▁ch",
        -10.310850170987711
      ],
      [
        "▁kh",
        -10.31171665850901
      ],
      [
        "▁tha",
        -10.311980763976742
      ],
      [
        "▁luyện",
        -10.312637841031972
      ],
      [
        "▁phím",
        -10.313801382589144
      ],
      [
        "▁chanh",
        -10.317899078561634
      ],
      [
        "xông",
        -10.318611318492428
      ],
      [
        "▁bể",
        -10.319171590564672
      ],
      [
        "▁liệt",
        -10.321147637134082
      ],
      [
        "▁smartphone",
        -10.328761860608614
      ],
      [
        "▁phiếu",
        -10.330249777471948
      ],
      [
        "▁thôn",
        -10.330276541946928
      ],
      [
        "dạo",
        -10.33878820689071
      ],
      [
        "▁thèm",
        -10.339340553052772
      ],
      [
        "▁ngu",
        -10.340433087306227
      ],
      [
        "▁tây",
        -10.340438515819844
      ],
      [
        "▁lỡ",
        -10.342287609537438
      ],
      [
        "ấp",
        -10.349201611112049
      ],
      [
        "▁lắp",
        -10.3501496642472
      ],
      [
        "▁cương",
        -10.35108592729232
      ],
      [
        "▁top",
        -10.351529682577995
      ],
      [
        "▁hỏng",
        -10.353853823293242
      ],
      [
        "▁đua",
        -10.35656321316886
      ],
      [
        "▁lầu",
        -10.357037065669433
      ],
      [
        "▁thổi",
        -10.358321978542792
      ],
      [
        "▁linh",
        -10.36554807923179
      ],
      [
        "đằng",
        -10.366106195968118
      ],
      [
        "▁lãng",
        -10.369587920480791
      ],
      [
        "▁thái",
        -10.37085386643881
      ],
      [
        "▁phạm",
        -10.371058921691125
      ],
      [
        "▁non",
        -10.371343142641566
      ],
      [
        "▁lan",
        -10.372631465046856
      ],
      [
        "▁tô",
        -10.373595304641317
      ],
      [
        "▁bom",
        -10.373754107398211
      ],
      [
        "3",
        -10.373761082247007
      ],
      [
        "▁mau",
        -10.373995036913522
      ],
      [
        "▁hàn",
        -10.377311803461827
      ],
      [
        "▁đô",
        -10.37773570005152
      ],
      [
        "▁bí",
        -10.378897243977685
      ],
      [
        "rực",
        -10.379467836677186
      ],
      [
        "▁vương",
        -10.383426979875262
      ],
      [
        "ỏi",
        -10.385941745270284
      ],
      [
        "▁dao",
        -10.38596734822246
      ],
      [
        "▁00",
        -10.388593800430908
      ],
      [
        "▁má",
        -10.38913458718841
      ],
      [
        "▁tràn",
        -10.391548178267694
      ],
      [
        "▁giáo",
        -10.394622277572134
      ],
      [
        "▁dàn",
        -10.395987824334084
      ],
      [
        "▁đói",
        -10.396873614449085
      ],
      [
        "lùi",
        -10.397574824383216
      ],
      [
        "▁đích",
        -10.39762788418964
      ],
      [
        "thưa",
        -10.399007578212352
      ],
      [
        "▁đỗ",
        -10.399691730066026
      ],
      [
        "khẽ",
        -10.40015095206411
      ],
      [
        "▁phổi",
        -10.40096924892779
      ],
      [
        "▁hàm",
        -10.400972491967543
      ],
      [
        "▁thờ",
        -10.400998299951842
      ],
      [
        "▁đành",
        -10.401098694112116
      ],
      [
        "▁kế",
        -10.40210000375302
      ],
      [
        "▁mộ",
        -10.402692425292658
      ],
      [
        "gõ",
        -10.403529728803456
      ],
      [
        "▁lầm",
        -10.404033205611414
      ],
      [
        "▁cảng",
        -10.40573498133004
      ],
      [
        "▁trục",
        -10.406377432060362
      ],
      [
        "▁kề",
        -10.406556116095324
      ],
      [
        "▁đựng",
        -10.408204601827103
      ],
      [
        "▁khắc",
        -10.408613321330376
      ],
      [
        "▁www",
        -10.410229822727889
      ],
      [
        "▁blog",
        -10.411239592702556
      ],
      [
        "▁cước",
        -10.413447279491898
      ],
      [
        "▁dâng",
        -10.413452912161146
      ],
      [
        "▁chìm",
        -10.414428641567406
      ],
      [
        "▁cốt",
        -10.41505270918381
      ],
      [
        "▁đối",
        -10.415420115126295
      ],
      [
        "▁nhăn",
        -10.415646095045188
      ],
      [
        "▁giam",
        -10.416109574682714
      ],
      [
        "▁mét",
        -10.41689191156386
      ],
      [
        "▁tiêm",
        -10.418372064092582
      ],
      [
        "▁bốc",
        -10.418427698472914
      ],
      [
        "▁đền",
        -10.419479807144455
      ],
      [
        "▁2006",
        -10.419760656555928
      ],
      [
        "▁xác",
        -10.421867338364477
      ],
      [
        "▁33",
        -10.423594817446505
      ],
      [
        "▁sạc",
        -10.424510132257424
      ],
      [
        "▁marketing",
        -10.427660155146643
      ],
      [
        "▁chán",
        -10.427978260454138
      ],
      [
        "▁trĩ",
        -10.428766090188828
      ],
      [
        "▁mai",
        -10.429850057467046
      ],
      [
        "▁34",
        -10.43042582086912
      ],
      [
        "▁trầm",
        -10.43047287359498
      ],
      [
        "▁bút",
        -10.432062905655584
      ],
      [
        "cụm",
        -10.433071435944454
      ],
      [
        "▁laptop",
        -10.434332093069925
      ],
      [
        "▁dựng",
        -10.434441590511582
      ],
      [
        "▁địch",
        -10.434483754029344
      ],
      [
        "▁chai",
        -10.435271879810731
      ],
      [
        "▁phục",
        -10.436318880293657
      ],
      [
        "▁đáy",
        -10.437525527815293
      ],
      [
        "▁hoàng",
        -10.441382806868148
      ],
      [
        "▁lẽ",
        -10.441431438579498
      ],
      [
        "▁gánh",
        -10.441534535100166
      ],
      [
        "nhức",
        -10.441983308158113
      ],
      [
        "▁xơ",
        -10.442939048615395
      ],
      [
        "ỵ",
        -10.444027320733822
      ],
      [
        "▁bỗng",
        -10.444975198186974
      ],
      [
        "▁rắn",
        -10.445282280854732
      ],
      [
        "▁dữ",
        -10.446632305602275
      ],
      [
        "▁quỷ",
        -10.446649100248798
      ],
      [
        "đạn",
        -10.446686680802811
      ],
      [
        "▁trụ",
        -10.452221118004092
      ],
      [
        "▁nghĩa",
        -10.452337472745825
      ],
      [
        "▁khói",
        -10.452678833471913
      ],
      [
        "▁hô",
        -10.453122332117522
      ],
      [
        "▁hot",
        -10.453503349427123
      ],
      [
        "▁nồi",
        -10.45397377550531
      ],
      [
        "▁vú",
        -10.45575471836018
      ],
      [
        "▁38",
        -10.45644706810345
      ],
      [
        "▁lây",
        -10.457135764844152
      ],
      [
        "▁mảng",
        -10.457792898312125
      ],
      [
        "▁xả",
        -10.461025748206035
      ],
      [
        "ỉ",
        -10.462541718082711
      ],
      [
        "ù",
        -10.462650227707016
      ],
      [
        "mẹo",
        -10.463753066296055
      ],
      [
        "chợt",
        -10.465177920364743
      ],
      [
        "▁vươn",
        -10.46541077932747
      ],
      [
        "▁vân",
        -10.470799335807856
      ],
      [
        "hưu",
        -10.473608572036811
      ],
      [
        "▁bó",
        -10.473975583825087
      ],
      [
        "▁quyển",
        -10.4776054172461
      ],
      [
        "ố",
        -10.47818601247911
      ],
      [
        "▁thị",
        -10.478261244058858
      ],
      [
        "▁đính",
        -10.48020798235561
      ],
      [
        "▁leo",
        -10.481193703256908
      ],
      [
        "▁2005",
        -10.481377251129844
      ],
      [
        "▁ổn",
        -10.481525482648085
      ],
      [
        "▁vận",
        -10.482571283967362
      ],
      [
        "▁nguy",
        -10.482667548276408
      ],
      [
        "▁tố",
        -10.483081980189745
      ],
      [
        "▁giọt",
        -10.483515769430984
      ],
      [
        "▁nén",
        -10.483779516166676
      ],
      [
        "ơn",
        -10.486630210989238
      ],
      [
        "▁sex",
        -10.486910216042372
      ],
      [
        "▁dị",
        -10.4892982238785
      ],
      [
        "▁37",
        -10.489705780078836
      ],
      [
        "nếp",
        -10.490595351377094
      ],
      [
        "▁nạp",
        -10.49087140758198
      ],
      [
        "▁cảm",
        -10.491588737591073
      ],
      [
        "▁lưỡi",
        -10.492460428041408
      ],
      [
        "▁lăn",
        -10.494160057301752
      ],
      [
        "ệ",
        -10.495521951097617
      ],
      [
        "tiệm",
        -10.495657086765558
      ],
      [
        "ấu",
        -10.496206279679162
      ],
      [
        "▁lưới",
        -10.498593066462108
      ],
      [
        "▁du",
        -10.50005234618448
      ],
      [
        "▁phản",
        -10.500523490800497
      ],
      [
        "▁mỹ",
        -10.500763340441834
      ],
      [
        "▁nh",
        -10.500787661352682
      ],
      [
        "▁thô",
        -10.500794274764214
      ],
      [
        "▁muôn",
        -10.501094851077893
      ],
      [
        "▁vấ",
        -10.501101875703547
      ],
      [
        "▁ham",
        -10.50116419895238
      ],
      [
        "▁trượt",
        -10.501736065907766
      ],
      [
        "▁họng",
        -10.502737188249023
      ],
      [
        "▁virus",
        -10.50327991614428
      ],
      [
        "▁mũ",
        -10.503490352711545
      ],
      [
        "cắn",
        -10.504431357551518
      ],
      [
        "▁lệ",
        -10.50491178144847
      ],
      [
        "▁tiện",
        -10.50538672053263
      ],
      [
        "▁cài",
        -10.5057462280998
      ],
      [
        "▁cường",
        -10.506169696857595
      ],
      [
        "▁hôi",
        -10.50694757180302
      ],
      [
        "▁ghép",
        -10.50710534536518
      ],
      [
        "▁ngâm",
        -10.507456737921798
      ],
      [
        "ợ",
        -10.508478238338729
      ],
      [
        "ân",
        -10.511888407273602
      ],
      [
        "▁massage",
        -10.512422326137704
      ],
      [
        "▁nô",
        -10.513499133626018
      ],
      [
        "▁ven",
        -10.514138395250358
      ],
      [
        "vỗ",
        -10.514605844535094
      ],
      [
        "úp",
        -10.516466812956198
      ],
      [
        "▁khâu",
        -10.516510334425933
      ],
      [
        "▁nồng",
        -10.51694342473136
      ],
      [
        "êm",
        -10.517376260211783
      ],
      [
        "▁dư",
        -10.518575866271144
      ],
      [
        "▁thấu",
        -10.519896528313303
      ],
      [
        "▁giận",
        -10.524031455043742
      ],
      [
        "▁lãi",
        -10.525519748088758
      ],
      [
        "▁tán",
        -10.528537527196724
      ],
      [
        "▁chỉnh",
        -10.528679708177242
      ],
      [
        "ẩy",
        -10.528768848863624
      ],
      [
        "▁kiện",
        -10.529374871873271
      ],
      [
        "▁mổ",
        -10.530455153771353
      ],
      [
        "rụng",
        -10.535718809610954
      ],
      [
        "▁mật",
        -10.537028742392868
      ],
      [
        "▁48",
        -10.538304234920863
      ],
      [
        "▁tương",
        -10.53928407275323
      ],
      [
        "▁thầm",
        -10.539700759198572
      ],
      [
        "▁thất",
        -10.541075691508874
      ],
      [
        "lọt",
        -10.541562730504689
      ],
      [
        "▁bày",
        -10.5416283221915
      ],
      [
        "ơ",
        -10.54248431071631
      ],
      [
        "▁nhôm",
        -10.545310664483004
      ],
      [
        "▁khoe",
        -10.54646800696752
      ],
      [
        "▁gian",
        -10.548790030769547
      ],
      [
        "▁lợn",
        -10.549309571957004
      ],
      [
        "▁ghét",
        -10.54980837138908
      ],
      [
        "▁55",
        -10.550433293118791
      ],
      [
        "▁hiền",
        -10.554969681927796
      ],
      [
        "▁hang",
        -10.556051920529214
      ],
      [
        "▁giật",
        -10.556213783034584
      ],
      [
        "▁gi",
        -10.557142318770852
      ],
      [
        "▁mèo",
        -10.557157023526443
      ],
      [
        "▁2000",
        -10.561195460944226
      ],
      [
        "▁kệ",
        -10.561212917909517
      ],
      [
        "▁mệt",
        -10.562578013210354
      ],
      [
        "vách",
        -10.563032269574675
      ],
      [
        "▁phó",
        -10.564023615811315
      ],
      [
        "▁150",
        -10.565432849272504
      ],
      [
        "▁ho",
        -10.566616525022251
      ],
      [
        "▁việt",
        -10.567822656804063
      ],
      [
        "lứa",
        -10.56913921518128
      ],
      [
        "▁vướng",
        -10.570058752831098
      ],
      [
        "▁dâu",
        -10.571264576099807
      ],
      [
        "cởi",
        -10.575204688541003
      ],
      [
        "nhịn",
        -10.576622346444694
      ],
      [
        "▁nhi",
        -10.576912846120178
      ],
      [
        "▁khiêu",
        -10.57697820994798
      ],
      [
        "▁facebook",
        -10.577146219025073
      ],
      [
        "▁khen",
        -10.57967544024904
      ],
      [
        "▁duyên",
        -10.579861137118431
      ],
      [
        "hẹp",
        -10.58043087945112
      ],
      [
        "▁ấn",
        -10.580647384826296
      ],
      [
        "xăm",
        -10.580718014171834
      ],
      [
        "▁chén",
        -10.580863999668628
      ],
      [
        "▁móng",
        -10.58369253456221
      ],
      [
        "▁39",
        -10.584924113806272
      ],
      [
        "▁tím",
        -10.585739522594778
      ],
      [
        "▁muội",
        -10.587129791711003
      ],
      [
        "▁chừng",
        -10.58721996318928
      ],
      [
        "▁đà",
        -10.589341855352242
      ],
      [
        "▁đụng",
        -10.589389614556088
      ],
      [
        "▁thang",
        -10.59212285714392
      ],
      [
        "▁sốc",
        -10.594818539522864
      ],
      [
        "▁lấp",
        -10.598029386419904
      ],
      [
        "▁trùng",
        -10.59805604738014
      ],
      [
        "▁ngứa",
        -10.59806177150162
      ],
      [
        "hòn",
        -10.598872309978583
      ],
      [
        "▁lồng",
        -10.59902864316776
      ],
      [
        "▁qu",
        -10.599264434167504
      ],
      [
        "▁trách",
        -10.601571929829026
      ],
      [
        "ả",
        -10.603989124593292
      ],
      [
        "▁quang",
        -10.604247841674864
      ],
      [
        "▁dung",
        -10.604417519598718
      ],
      [
        "▁biểu",
        -10.60629799756108
      ],
      [
        "▁chuông",
        -10.60722163745574
      ],
      [
        "▁chè",
        -10.60916744312042
      ],
      [
        "▁lít",
        -10.609424185533175
      ],
      [
        "▁ủy",
        -10.611451987414942
      ],
      [
        "▁nâu",
        -10.612020406080132
      ],
      [
        "gũ",
        -10.612372160859731
      ],
      [
        "▁cong",
        -10.61274384763065
      ],
      [
        "▁giai",
        -10.613842374584882
      ],
      [
        "▁tí",
        -10.613933739116383
      ],
      [
        "▁clip",
        -10.615385073686175
      ],
      [
        "▁42",
        -10.616023259476774
      ],
      [
        "▁huynh",
        -10.623060260435691
      ],
      [
        "▁son",
        -10.625450771624967
      ],
      [
        "an",
        -10.62691180788459
      ],
      [
        "▁phơi",
        -10.627661373733002
      ],
      [
        "▁the",
        -10.630057152857912
      ],
      [
        "▁sụ",
        -10.630910040163672
      ],
      [
        "▁tuyết",
        -10.631584378971642
      ],
      [
        "▁shop",
        -10.631712171526043
      ],
      [
        "▁tắc",
        -10.632531551195418
      ],
      [
        "▁chiêu",
        -10.634799497958303
      ],
      [
        "▁heo",
        -10.63599228290622
      ],
      [
        "▁khoan",
        -10.636107502941153
      ],
      [
        "▁sử",
        -10.63698221990836
      ],
      [
        "▁43",
        -10.639241605066024
      ],
      [
        "▁mi",
        -10.641373297237616
      ],
      [
        "ước",
        -10.641658974065551
      ],
      [
        "▁giặt",
        -10.642368333846562
      ],
      [
        "▁xinh",
        -10.64275755675671
      ],
      [
        "▁đè",
        -10.642986946853616
      ],
      [
        "▁chí",
        -10.643477245710342
      ],
      [
        "▁ôn",
        -10.64390155398772
      ],
      [
        "ch",
        -10.646950284387684
      ],
      [
        "▁thập",
        -10.648594079167063
      ],
      [
        "▁sanh",
        -10.648626886108683
      ],
      [
        "▁đấu",
        -10.649002520422933
      ],
      [
        "▁trích",
        -10.650090505693436
      ],
      [
        "▁buồng",
        -10.651051182676214
      ],
      [
        "▁đồi",
        -10.651102271793471
      ],
      [
        "▁mốc",
        -10.6529699117356
      ],
      [
        "▁nông",
        -10.655145438525208
      ],
      [
        "▁bấ",
        -10.65709022243199
      ],
      [
        "▁nghiêng",
        -10.662069770559604
      ],
      [
        "rắc",
        -10.663027747345524
      ],
      [
        "ừ",
        -10.663701196039272
      ],
      [
        "▁trí",
        -10.665876846037452
      ],
      [
        "hít",
        -10.66628793317978
      ],
      [
        "▁bế",
        -10.666737252378296
      ],
      [
        "▁sofa",
        -10.66744265880082
      ],
      [
        "▁kiến",
        -10.667688192968235
      ],
      [
        "▁thiện",
        -10.667999156598682
      ],
      [
        "▁ngập",
        -10.669030367934928
      ],
      [
        "▁thuận",
        -10.66999555407238
      ],
      [
        "chậu",
        -10.67139855559803
      ],
      [
        "▁hổ",
        -10.671790617936525
      ],
      [
        "nhắm",
        -10.6725768430022
      ],
      [
        "▁tín",
        -10.673753503409072
      ],
      [
        "▁tứ",
        -10.674526260707196
      ],
      [
        "▁axit",
        -10.676071768928583
      ],
      [
        "▁sa",
        -10.67637457070478
      ],
      [
        "▁màng",
        -10.676939387486902
      ],
      [
        "▁tích",
        -10.676965548125253
      ],
      [
        "lướt",
        -10.677458838600026
      ],
      [
        "▁xách",
        -10.677820018033495
      ],
      [
        "▁lục",
        -10.678054718440144
      ],
      [
        "▁kiếp",
        -10.678839928300196
      ],
      [
        "rỉ",
        -10.681297428438665
      ],
      [
        "khép",
        -10.682817923693436
      ],
      [
        "▁kì",
        -10.68286771614162
      ],
      [
        "▁toán",
        -10.683192950019215
      ],
      [
        "▁đống",
        -10.684169478059296
      ],
      [
        "▁rà",
        -10.684999505396496
      ],
      [
        "▁bơm",
        -10.689544719971972
      ],
      [
        "▁1975",
        -10.6896444358609
      ],
      [
        "▁long",
        -10.690653483453524
      ],
      [
        "ôtô",
        -10.690896743441604
      ],
      [
        "▁nghiêm",
        -10.693494333967148
      ],
      [
        "▁khuôn",
        -10.695013758013962
      ],
      [
        "đ",
        -10.695622120208052
      ],
      [
        "▁inch",
        -10.695754507213389
      ],
      [
        "▁cồn",
        -10.697658250142114
      ],
      [
        "▁fan",
        -10.69770268445848
      ],
      [
        "▁bang",
        -10.69844386635276
      ],
      [
        "▁cafe",
        -10.698883683503112
      ],
      [
        "▁chìa",
        -10.699446869802244
      ],
      [
        "h00",
        -10.700301138306273
      ],
      [
        "▁chuối",
        -10.700381881124642
      ],
      [
        "▁400",
        -10.702082896189472
      ],
      [
        "▁kháng",
        -10.70247680630974
      ],
      [
        "▁quét",
        -10.702587261955118
      ],
      [
        "▁hiến",
        -10.705323960627885
      ],
      [
        "▁mượn",
        -10.707798819390751
      ],
      [
        "▁nọ",
        -10.709171261697833
      ],
      [
        "▁men",
        -10.710581154851525
      ],
      [
        "▁lề",
        -10.71073810948877
      ],
      [
        "▁giáp",
        -10.716321126218077
      ],
      [
        "sưng",
        -10.71693488025618
      ],
      [
        "▁thạch",
        -10.718256558456051
      ],
      [
        "5",
        -10.718991485738671
      ],
      [
        "▁75",
        -10.719738481460322
      ],
      [
        "▁mù",
        -10.720273886017605
      ],
      [
        "▁tạ",
        -10.723917116253633
      ],
      [
        "▁chăng",
        -10.72508228243287
      ],
      [
        "▁vũ",
        -10.726155757695118
      ],
      [
        "rạng",
        -10.726424587181471
      ],
      [
        "▁ví",
        -10.726702611286685
      ],
      [
        "▁chánh",
        -10.729546043149131
      ],
      [
        "uýt",
        -10.730071776301376
      ],
      [
        "▁mail",
        -10.730791986953264
      ],
      [
        "▁đẻ",
        -10.73258603175972
      ],
      [
        "▁phẩm",
        -10.73370331148772
      ],
      [
        "▁tivi",
        -10.737103186134508
      ],
      [
        "▁đuôi",
        -10.738276669105987
      ],
      [
        "▁nhạt",
        -10.73853614452038
      ],
      [
        "▁nhật",
        -10.73935110990196
      ],
      [
        "▁tri",
        -10.739512177271134
      ],
      [
        "đắp",
        -10.740349940028612
      ],
      [
        "▁cử",
        -10.7438658761836
      ],
      [
        "▁hiệu",
        -10.744255149696036
      ],
      [
        "dãy",
        -10.744454660891082
      ],
      [
        "▁đắc",
        -10.74588230076832
      ],
      [
        "liếc",
        -10.746002313056904
      ],
      [
        "▁ngụ",
        -10.746334452487504
      ],
      [
        "▁ngôn",
        -10.74693806720515
      ],
      [
        "▁chôn",
        -10.74809458892604
      ],
      [
        "▁sôi",
        -10.750188610183468
      ],
      [
        "ức",
        -10.750771377800564
      ],
      [
        "▁nhẫn",
        -10.751436966027306
      ],
      [
        "đứt",
        -10.75480780542527
      ],
      [
        "▁mini",
        -10.75649452304228
      ],
      [
        "ế",
        -10.75844819349988
      ],
      [
        "▁bến",
        -10.75894406547871
      ],
      [
        "▁đệm",
        -10.759233057905757
      ],
      [
        "▁đùa",
        -10.759718854106971
      ],
      [
        "▁ngưng",
        -10.761496268047626
      ],
      [
        "▁đầm",
        -10.761899766985833
      ],
      [
        "▁hầu",
        -10.76258082880337
      ],
      [
        "▁nốt",
        -10.764109883959316
      ],
      [
        "▁mông",
        -10.764249028123746
      ],
      [
        "▁phì",
        -10.764290385324516
      ],
      [
        "▁niệm",
        -10.764764877488838
      ],
      [
        "▁41",
        -10.76729460374627
      ],
      [
        "▁2003",
        -10.76850705592666
      ],
      [
        "▁tàn",
        -10.768777599215994
      ],
      [
        "▁nát",
        -10.769544439769149
      ],
      [
        "▁nghiệp",
        -10.769573516379417
      ],
      [
        "▁chém",
        -10.770367450924269
      ],
      [
        "▁điền",
        -10.77036840143228
      ],
      [
        "▁kê",
        -10.772538783175428
      ],
      [
        "▁dồn",
        -10.774945578280112
      ],
      [
        "suối",
        -10.77610735477499
      ],
      [
        "▁khủng",
        -10.776525675049164
      ],
      [
        "▁xoa",
        -10.77744695508429
      ],
      [
        "▁nuốt",
        -10.779213305111096
      ],
      [
        "▁chua",
        -10.781861499133225
      ],
      [
        "▁thề",
        -10.782101728778969
      ],
      [
        "▁hủy",
        -10.783407045089072
      ],
      [
        "▁giỏ",
        -10.784032010962212
      ],
      [
        "▁lãnh",
        -10.78558965131096
      ],
      [
        "▁49",
        -10.786011639467809
      ],
      [
        "4",
        -10.78674714469099
      ],
      [
        "▁dã",
        -10.787639402545077
      ],
      [
        "▁triều",
        -10.78784296830176
      ],
      [
        "ráp",
        -10.788242791744787
      ],
      [
        "ao",
        -10.788776292831033
      ],
      [
        "▁cõi",
        -10.789356126884316
      ],
      [
        "▁51",
        -10.791019030772093
      ],
      [
        "▁lý",
        -10.791124454448974
      ],
      [
        "▁52",
        -10.792549665348687
      ],
      [
        "▁thuần",
        -10.794126718746538
      ],
      [
        "▁huyết",
        -10.794766393830908
      ],
      [
        "▁chớ",
        -10.79790268639404
      ],
      [
        "▁dặm",
        -10.7986648069313
      ],
      [
        "▁cáp",
        -10.79875912881284
      ],
      [
        "▁logo",
        -10.798947495014655
      ],
      [
        "▁phúc",
        -10.799048194682973
      ],
      [
        "▁buôn",
        -10.800747561154989
      ],
      [
        "▁đình",
        -10.802010739459014
      ],
      [
        "▁cốc",
        -10.803418538274965
      ],
      [
        "hận",
        -10.806068777938126
      ],
      [
        "▁mệnh",
        -10.807636079627011
      ],
      [
        "▁xưởng",
        -10.808466303031889
      ],
      [
        "▁rung",
        -10.810738219941864
      ],
      [
        "▁kĩ",
        -10.81138341247093
      ],
      [
        "▁protein",
        -10.812723089979704
      ],
      [
        "▁cải",
        -10.813119470375067
      ],
      [
        "▁phù",
        -10.813139335057588
      ],
      [
        "▁hồn",
        -10.813185748370614
      ],
      [
        "▁thụ",
        -10.81600015673524
      ],
      [
        "▁quyết",
        -10.818609252596412
      ],
      [
        "▁trọng",
        -10.818757488403
      ],
      [
        "▁cay",
        -10.8195924566626
      ],
      [
        "▁tui",
        -10.819719996537067
      ],
      [
        "▁hối",
        -10.820909658301064
      ],
      [
        "▁cò",
        -10.823599741722555
      ],
      [
        "▁ưu",
        -10.823652311786637
      ],
      [
        "▁trú",
        -10.823795378347905
      ],
      [
        "▁luận",
        -10.824046840658538
      ],
      [
        "▁47",
        -10.824084164598188
      ],
      [
        "dọn",
        -10.827289967083791
      ],
      [
        "ập",
        -10.828657982170142
      ],
      [
        "▁2004",
        -10.828810116052718
      ],
      [
        "▁chăm",
        -10.830095470565276
      ],
      [
        "▁phế",
        -10.830342319560955
      ],
      [
        "▁trọ",
        -10.832495133311507
      ],
      [
        "▁thác",
        -10.83323983087672
      ],
      [
        "▁soi",
        -10.83361615236233
      ],
      [
        "▁thăng",
        -10.83401327609701
      ],
      [
        "tỏi",
        -10.835885555564465
      ],
      [
        "▁bi",
        -10.836396730812842
      ],
      [
        "▁no",
        -10.837658659722608
      ],
      [
        "▁lót",
        -10.837853957593872
      ],
      [
        "▁44",
        -10.837995524739076
      ],
      [
        "ôi",
        -10.83969185998741
      ],
      [
        "▁khe",
        -10.84145706855443
      ],
      [
        "ùi",
        -10.84332046091638
      ],
      [
        "▁chiên",
        -10.844423302869371
      ],
      [
        "▁eo",
        -10.845101420844824
      ],
      [
        "rỗi",
        -10.846846005002972
      ],
      [
        "dốc",
        -10.849373120269428
      ],
      [
        "▁phu",
        -10.85090641141148
      ],
      [
        "▁khuyến",
        -10.852183279509877
      ],
      [
        "▁tựu",
        -10.852482110386116
      ],
      [
        "ẩu",
        -10.852639650203566
      ],
      [
        "▁quạt",
        -10.85281759130732
      ],
      [
        "▁chê",
        -10.854166677740087
      ],
      [
        "▁thải",
        -10.854274117544405
      ],
      [
        "ề",
        -10.85450845731323
      ],
      [
        "ặc",
        -10.854841813668342
      ],
      [
        "hét",
        -10.855969669030356
      ],
      [
        "▁and",
        -10.856684226250351
      ],
      [
        "▁loạn",
        -10.857627479628723
      ],
      [
        "▁nhấp",
        -10.858449278536131
      ],
      [
        "tụi",
        -10.859272136276244
      ],
      [
        "▁by",
        -10.859667005779237
      ],
      [
        "▁đoạt",
        -10.85974421892347
      ],
      [
        "lậu",
        -10.861482100794158
      ],
      [
        "▁pm",
        -10.862390737239876
      ],
      [
        "▁65",
        -10.863472763024095
      ],
      [
        "▁chốn",
        -10.8643870090394
      ],
      [
        "▁trào",
        -10.864529642471828
      ],
      [
        "▁dịu",
        -10.865897896839291
      ],
      [
        "▁đòn",
        -10.86726894838069
      ],
      [
        "▁đạp",
        -10.868350750640944
      ],
      [
        "gởi",
        -10.869888619966904
      ],
      [
        "▁46",
        -10.87053523650335
      ],
      [
        "▁seo",
        -10.870845602057075
      ],
      [
        "▁bận",
        -10.871024729749257
      ],
      [
        "▁đun",
        -10.872056174750378
      ],
      [
        "▁1000",
        -10.872240481983445
      ],
      [
        "▁khoá",
        -10.872780111558423
      ],
      [
        "òng",
        -10.873184956155498
      ],
      [
        "h30",
        -10.873899069170305
      ],
      [
        "ẩn",
        -10.87647651916614
      ],
      [
        "ầm",
        -10.8775822776003
      ],
      [
        "▁bơ",
        -10.879483090713222
      ],
      [
        "▁nghiện",
        -10.879951925351657
      ],
      [
        "▁chửi",
        -10.881523662353418
      ],
      [
        "▁bồn",
        -10.882281067378049
      ],
      [
        "iềng",
        -10.885163363522548
      ],
      [
        "▁tháp",
        -10.885735586148783
      ],
      [
        "▁54",
        -10.886451907912477
      ],
      [
        "▁taxi",
        -10.887814564375454
      ],
      [
        "▁kiêm",
        -10.88927925926991
      ],
      [
        "ngẩng",
        -10.895377925055058
      ],
      [
        "▁cư",
        -10.895907558299347
      ],
      [
        "▁thuật",
        -10.897350402769783
      ],
      [
        "đếm",
        -10.89741654726723
      ],
      [
        "▁phanh",
        -10.898066373970217
      ],
      [
        "▁canxi",
        -10.898458927776309
      ],
      [
        "▁trăng",
        -10.901726143845227
      ],
      [
        "▁dở",
        -10.90383118365493
      ],
      [
        "yết",
        -10.904429628429284
      ],
      [
        "gãy",
        -10.90446710623552
      ],
      [
        "er",
        -10.904606517265064
      ],
      [
        "▁thiền",
        -10.905587082305567
      ],
      [
        "▁tê",
        -10.908270418019807
      ],
      [
        "ồn",
        -10.908515016572332
      ],
      [
        "ốp",
        -10.909785171725815
      ],
      [
        "▁cọ",
        -10.9105943811441
      ],
      [
        "gạt",
        -10.91144018467039
      ],
      [
        "▁duyệt",
        -10.912995930840337
      ],
      [
        "▁van",
        -10.912997147415966
      ],
      [
        "▁kích",
        -10.913264162820871
      ],
      [
        "▁suất",
        -10.913344682718352
      ],
      [
        "▁ngầm",
        -10.915371760348746
      ],
      [
        "▁xám",
        -10.915373198082758
      ],
      [
        "▁luồng",
        -10.915579137911712
      ],
      [
        "▁khát",
        -10.916511543640258
      ],
      [
        "▁tuyên",
        -10.917182056272862
      ],
      [
        "nứt",
        -10.918621917329569
      ],
      [
        "▁gầy",
        -10.918826091759886
      ],
      [
        "hè",
        -10.9203202949189
      ],
      [
        "▁biên",
        -10.92151165638219
      ],
      [
        "▁hoang",
        -10.921754533419607
      ],
      [
        "▁cưỡng",
        -10.923035277037757
      ],
      [
        "rèm",
        -10.925483338964836
      ],
      [
        "▁phe",
        -10.92617392295237
      ],
      [
        "▁cháo",
        -10.92763761156331
      ],
      [
        "▁mỏ",
        -10.928431325438291
      ],
      [
        "mặn",
        -10.929667595289995
      ],
      [
        "▁vây",
        -10.931221260165216
      ],
      [
        "ắc",
        -10.931240595108369
      ],
      [
        "▁thoa",
        -10.932041260794882
      ],
      [
        "cành",
        -10.933646880663597
      ],
      [
        "▁run",
        -10.934365411448209
      ],
      [
        "▁cúng",
        -10.93691159706936
      ],
      [
        "▁thẩm",
        -10.937483464841003
      ],
      [
        "▁120",
        -10.93854994828824
      ],
      [
        "▁hận",
        -10.94130212607471
      ],
      [
        "yến",
        -10.942706930405494
      ],
      [
        "▁hoài",
        -10.942910597977068
      ],
      [
        "làn",
        -10.943823113206747
      ],
      [
        "▁thun",
        -10.944892852385186
      ],
      [
        "▁thon",
        -10.94549572354462
      ],
      [
        "▁f",
        -10.94615392003228
      ],
      [
        "ã",
        -10.946946170518329
      ],
      [
        "▁giơ",
        -10.94764133032936
      ],
      [
        "▁64",
        -10.9500811567076
      ],
      [
        "ha",
        -10.950789278878592
      ],
      [
        "▁cạn",
        -10.951090033186144
      ],
      [
        "ốc",
        -10.951338391982397
      ],
      [
        "lật",
        -10.951364023469727
      ],
      [
        "▁lẻ",
        -10.952274794377884
      ],
      [
        "▁vắng",
        -10.952427607428316
      ],
      [
        "ỏ",
        -10.952542764878851
      ],
      [
        "▁ướt",
        -10.952701062876512
      ],
      [
        "ứa",
        -10.954995339358026
      ],
      [
        "▁khẩu",
        -10.959050722981296
      ],
      [
        "▁99",
        -10.961843104132068
      ],
      [
        "▁mì",
        -10.96268380835375
      ],
      [
        "▁nguyện",
        -10.963827421642408
      ],
      [
        "▁cua",
        -10.96525561551914
      ],
      [
        "▁56",
        -10.966505618877022
      ],
      [
        "▁tem",
        -10.966653652880384
      ],
      [
        "▁vĩ",
        -10.971008806588356
      ],
      [
        "gác",
        -10.971120462256058
      ],
      [
        "cãi",
        -10.971866158245149
      ],
      [
        "▁tà",
        -10.973952249585624
      ],
      [
        "▁quái",
        -10.9765403969092
      ],
      [
        "▁nhóc",
        -10.976751383771903
      ],
      [
        "▁ước",
        -10.979502446197897
      ],
      [
        "▁tọa",
        -10.98057643038929
      ],
      [
        "▁thổ",
        -10.98361200374938
      ],
      [
        "gỡ",
        -10.983861607064089
      ],
      [
        "▁hạch",
        -10.984024902049615
      ],
      [
        "▁trán",
        -10.984296699301288
      ],
      [
        "▁tổn",
        -10.988820261353466
      ],
      [
        "lười",
        -10.988941218382886
      ],
      [
        "▁hà",
        -10.989232515476075
      ],
      [
        "út",
        -10.992601976268416
      ],
      [
        "▁sướng",
        -10.993249495389929
      ],
      [
        "èo",
        -10.993407598694684
      ],
      [
        "▁triển",
        -10.993958608782206
      ],
      [
        "ong",
        -10.995354175253675
      ],
      [
        "▁kiểm",
        -10.996301618731948
      ],
      [
        "▁bar",
        -10.99755901031808
      ],
      [
        "ại",
        -10.99784191747991
      ],
      [
        "▁gai",
        -10.99961880354244
      ],
      [
        "▁phối",
        -10.999724653247124
      ],
      [
        "▁lăng",
        -11.000177312804396
      ],
      [
        "▁view",
        -11.000501768901806
      ],
      [
        "▁59",
        -11.002673211098813
      ],
      [
        "mượt",
        -11.00293762758655
      ],
      [
        "ed",
        -11.003713607137168
      ],
      [
        "▁57",
        -11.004359774448858
      ],
      [
        "▁nghiền",
        -11.005236667905775
      ],
      [
        "▁reserved",
        -11.006834533975052
      ],
      [
        "▁râu",
        -11.008610967464069
      ],
      [
        "rights",
        -11.008754975579746
      ],
      [
        "▁cám",
        -11.009772988723062
      ],
      [
        "▁nhu",
        -11.013323877356562
      ],
      [
        "▁58",
        -11.014623413029751
      ],
      [
        "xắ",
        -11.01547837528296
      ],
      [
        "▁khuya",
        -11.017964300456953
      ],
      [
        "hẻm",
        -11.018790161843771
      ],
      [
        "âu",
        -11.02002024511872
      ],
      [
        "▁bề",
        -11.020424167626365
      ],
      [
        "▁95",
        -11.021203368900329
      ],
      [
        "▁khơi",
        -11.02218428160164
      ],
      [
        "▁đồn",
        -11.022516407604664
      ],
      [
        "quãng",
        -11.022753706391876
      ],
      [
        "▁600",
        -11.022976973621857
      ],
      [
        "▁72",
        -11.023317874977142
      ],
      [
        "vóc",
        -11.024503701989918
      ],
      [
        "▁lơ",
        -11.025414175666214
      ],
      [
        "▁kỷ",
        -11.02566864910579
      ],
      [
        "ẫm",
        -11.025848788746089
      ],
      [
        "nắp",
        -11.028860777315916
      ],
      [
        "ỷ",
        -11.029247206406296
      ],
      [
        "▁bồi",
        -11.029840649944314
      ],
      [
        "▁lỏng",
        -11.029960353246024
      ],
      [
        "▁pháo",
        -11.032357834046715
      ],
      [
        "▁xu",
        -11.032973171984244
      ],
      [
        "▁de",
        -11.033068734373131
      ],
      [
        "▁lọ",
        -11.03344690084566
      ],
      [
        "tưới",
        -11.033650734420776
      ],
      [
        "▁lai",
        -11.035596474681745
      ],
      [
        "▁lắc",
        -11.03693766259303
      ],
      [
        "vứt",
        -11.039686475142464
      ],
      [
        "▁bá",
        -11.04003418407406
      ],
      [
        "▁ngữ",
        -11.040539698308985
      ],
      [
        "▁nho",
        -11.041621820191986
      ],
      [
        "▁mộng",
        -11.042907305651164
      ],
      [
        "▁lui",
        -11.043567526127866
      ],
      [
        "▁dệt",
        -11.043655745600477
      ],
      [
        "▁rủ",
        -11.043977439290485
      ],
      [
        "▁am",
        -11.044162331980475
      ],
      [
        "▁tuỳ",
        -11.044546195866229
      ],
      [
        "▁hố",
        -11.04586321965209
      ],
      [
        "▁san",
        -11.04644741101396
      ],
      [
        "▁xưng",
        -11.0474301780088
      ],
      [
        "dẻo",
        -11.04783199349953
      ],
      [
        "▁chúa",
        -11.048475947670529
      ],
      [
        "▁gam",
        -11.049652516222878
      ],
      [
        "▁quấy",
        -11.050723496109056
      ],
      [
        "▁lôi",
        -11.05081031350296
      ],
      [
        "▁53",
        -11.051913599990264
      ],
      [
        "▁xé",
        -11.05192909585348
      ],
      [
        "▁chà",
        -11.05452956944454
      ],
      [
        "rạp",
        -11.055154924094047
      ],
      [
        "▁uốn",
        -11.055484061409157
      ],
      [
        "quầy",
        -11.057384748603893
      ],
      [
        "▁sĩ",
        -11.058472557655286
      ],
      [
        "▁hắc",
        -11.058507665420196
      ],
      [
        "▁móc",
        -11.061242478659956
      ],
      [
        "7",
        -11.063481627373946
      ],
      [
        "cưng",
        -11.070759727702592
      ],
      [
        "▁phấn",
        -11.0708477809337
      ],
      [
        "▁thê",
        -11.07111299079065
      ],
      [
        "▁thỏa",
        -11.071225933498644
      ],
      [
        "▁trâu",
        -11.072144558410466
      ],
      [
        "▁sỉ",
        -11.073085880336803
      ],
      [
        "▁hiếu",
        -11.073181957825213
      ],
      [
        "▁đố",
        -11.0732516636254
      ],
      [
        "sếp",
        -11.075167335369215
      ],
      [
        "▁phiền",
        -11.075932636983833
      ],
      [
        "▁oan",
        -11.076707085005088
      ],
      [
        "▁dò",
        -11.077555252174683
      ],
      [
        "▁biệt",
        -11.078238462791298
      ],
      [
        "▁vuông",
        -11.081242020542335
      ],
      [
        "gàng",
        -11.083171399830348
      ],
      [
        "▁tphcm",
        -11.083325498539672
      ],
      [
        "▁toà",
        -11.083355498510262
      ],
      [
        "đùi",
        -11.083506053873132
      ],
      [
        "▁dụ",
        -11.085796591437443
      ],
      [
        "▁sản",
        -11.08713767368667
      ],
      [
        "▁vs",
        -11.087890808118432
      ],
      [
        "▁kỉ",
        -11.08926156867573
      ],
      [
        "▁chui",
        -11.091598406886094
      ],
      [
        "▁khuất",
        -11.092958601292128
      ],
      [
        "múa",
        -11.093116305516634
      ],
      [
        "dập",
        -11.094786361449948
      ],
      [
        "▁cận",
        -11.095618820686497
      ],
      [
        "▁đê",
        -11.09627172585138
      ],
      [
        "▁rách",
        -11.097356938339576
      ],
      [
        "▁va",
        -11.097937040398769
      ],
      [
        "▁dì",
        -11.099382140075358
      ],
      [
        "ing",
        -11.099480334980775
      ],
      [
        "▁đan",
        -11.09963118199371
      ],
      [
        "▁sương",
        -11.09981625135046
      ],
      [
        "▁khuẩn",
        -11.101189149488796
      ],
      [
        "niềng",
        -11.102001191947997
      ],
      [
        "▁tả",
        -11.103462021278547
      ],
      [
        "▁quí",
        -11.105863159954158
      ],
      [
        "▁tuân",
        -11.106277942902512
      ],
      [
        "▁cuộn",
        -11.10644428865668
      ],
      [
        "kíp",
        -11.109566681128657
      ],
      [
        "ông",
        -11.109794294345532
      ],
      [
        "ồi",
        -11.109911158921271
      ],
      [
        "▁vò",
        -11.112124545351906
      ],
      [
        "▁ngốc",
        -11.112468698732531
      ],
      [
        "xoang",
        -11.113567061407124
      ],
      [
        "▁tam",
        -11.113573188180576
      ],
      [
        "▁di",
        -11.113638231198172
      ],
      [
        "▁khôn",
        -11.115089083799573
      ],
      [
        "▁rồng",
        -11.11953846972114
      ],
      [
        "▁lặn",
        -11.119649461204402
      ],
      [
        "ắt",
        -11.124736842801807
      ],
      [
        "sườn",
        -11.124945022289614
      ],
      [
        "▁85",
        -11.12603956269476
      ],
      [
        "▁cằm",
        -11.127355380485012
      ],
      [
        "▁nhị",
        -11.127497374524488
      ],
      [
        "▁tộc",
        -11.128259999500536
      ],
      [
        "▁vực",
        -11.129549602073867
      ],
      [
        "▁chiết",
        -11.130371623874062
      ],
      [
        "▁tráng",
        -11.13178816993396
      ],
      [
        "mắng",
        -11.133740353728738
      ],
      [
        "ọc",
        -11.133838689817878
      ],
      [
        "▁kí",
        -11.134108164459995
      ],
      [
        "▁trấn",
        -11.134414683163213
      ],
      [
        "▁post",
        -11.134441889241485
      ],
      [
        "gót",
        -11.135681869141342
      ],
      [
        "▁nhiế",
        -11.137251795064786
      ],
      [
        "▁kịch",
        -11.137503460629295
      ],
      [
        "▁họa",
        -11.137847470568008
      ],
      [
        "▁can",
        -11.138651643665108
      ],
      [
        "▁trợ",
        -11.14014380907859
      ],
      [
        "▁quỳ",
        -11.140163001807815
      ],
      [
        "▁đinh",
        -11.140659885462007
      ],
      [
        "▁dạ",
        -11.141157333616466
      ],
      [
        "nhường",
        -11.141470336760506
      ],
      [
        "▁hảo",
        -11.142814370957026
      ],
      [
        "mồi",
        -11.143289776901812
      ],
      [
        "▁thọ",
        -11.144524027804724
      ],
      [
        "▁800",
        -11.145371213180962
      ],
      [
        "▁bổn",
        -11.146197553024606
      ],
      [
        "▁kẹo",
        -11.146284808635148
      ],
      [
        "chốt",
        -11.147395451151036
      ],
      [
        "gừng",
        -11.147522918475316
      ],
      [
        "▁vấn",
        -11.14759532302032
      ],
      [
        "▁cặ",
        -11.147778664587555
      ],
      [
        "trễ",
        -11.14826449325098
      ],
      [
        "6",
        -11.149742185142184
      ],
      [
        "▁2002",
        -11.149895620642
      ],
      [
        "▁teen",
        -11.151443731120688
      ],
      [
        "▁bực",
        -11.151685153544264
      ],
      [
        "▁len",
        -11.152451442193566
      ],
      [
        "▁châm",
        -11.153670559261029
      ],
      [
        "▁mầm",
        -11.154911432479157
      ],
      [
        "vua",
        -11.15809197585022
      ],
      [
        "▁hoá",
        -11.159647255217632
      ],
      [
        "▁ngoan",
        -11.160173499398184
      ],
      [
        "ét",
        -11.160768204436442
      ],
      [
        "▁chói",
        -11.161160560833885
      ],
      [
        "▁hotline",
        -11.161780219514275
      ],
      [
        "▁2001",
        -11.16189898909729
      ],
      [
        "▁thước",
        -11.162003183027238
      ],
      [
        "▁cỗ",
        -11.162222793864997
      ],
      [
        "▁up",
        -11.163386292890086
      ],
      [
        "▁thỏ",
        -11.164120256178792
      ],
      [
        "ứ",
        -11.165159685187785
      ],
      [
        "▁hông",
        -11.16623203657033
      ],
      [
        "▁nhờn",
        -11.166832876290153
      ],
      [
        "▁mỏi",
        -11.16904305653544
      ],
      [
        "▁tế",
        -11.170220615120352
      ],
      [
        "▁ngó",
        -11.17111018694094
      ],
      [
        "▁stress",
        -11.171771529945127
      ],
      [
        "▁giàn",
        -11.17201324305544
      ],
      [
        "▁trực",
        -11.172294911221991
      ],
      [
        "▁kiêng",
        -11.173453129080944
      ],
      [
        "▁ruộng",
        -11.17445850229556
      ],
      [
        "lẫy",
        -11.175671117840418
      ],
      [
        "▁spa",
        -11.17808354556537
      ],
      [
        "nhổ",
        -11.178637672611124
      ],
      [
        "rảnh",
        -11.180759188768633
      ],
      [
        "uỗng",
        -11.181118041526087
      ],
      [
        "xào",
        -11.182606186396097
      ],
      [
        "bèn",
        -11.183585209098243
      ],
      [
        "8",
        -11.185321287631574
      ],
      [
        "▁63",
        -11.185776689130057
      ],
      [
        "▁giếng",
        -11.18823338739336
      ],
      [
        "▁lê",
        -11.190149798877156
      ],
      [
        "▁quản",
        -11.190327206735908
      ],
      [
        "ướp",
        -11.190503551276777
      ],
      [
        "▁vớ",
        -11.191223805806832
      ],
      [
        "▁ngộ",
        -11.192970774304124
      ],
      [
        "▁karaoke",
        -11.194155061997536
      ],
      [
        "è",
        -11.195027500849392
      ],
      [
        "▁collagen",
        -11.195255160081445
      ],
      [
        "điềm",
        -11.19536229026538
      ],
      [
        "muỗi",
        -11.19695012770605
      ],
      [
        "▁vịt",
        -11.197239614830956
      ],
      [
        "loét",
        -11.198095701362355
      ],
      [
        "bẫy",
        -11.198148536007093
      ],
      [
        "▁bào",
        -11.198822090035945
      ],
      [
        "gầm",
        -11.1997206106956
      ],
      [
        "vịnh",
        -11.199954507697171
      ],
      [
        "▁khoang",
        -11.201916031319785
      ],
      [
        "viền",
        -11.202721942808846
      ],
      [
        "▁khoái",
        -11.203021772813576
      ],
      [
        "gào",
        -11.203323160381146
      ],
      [
        "▁xay",
        -11.203323180017328
      ],
      [
        "▁khốn",
        -11.203344327306525
      ],
      [
        "▁gieo",
        -11.20487749845338
      ],
      [
        "▁năng",
        -11.20594988960805
      ],
      [
        "▁ghen",
        -11.207903737131726
      ],
      [
        "ò",
        -11.208239440916408
      ],
      [
        "▁chip",
        -11.209186927491071
      ],
      [
        "▁chọc",
        -11.209930612954686
      ],
      [
        "trùm",
        -11.210414086883151
      ],
      [
        "nãy",
        -11.210768391572005
      ],
      [
        "▁dại",
        -11.213230008098192
      ],
      [
        "giặc",
        -11.21447012481992
      ],
      [
        "▁bạch",
        -11.21475319442978
      ],
      [
        "ủa",
        -11.215828764333311
      ],
      [
        "▁gợi",
        -11.21704545421194
      ],
      [
        "▁trì",
        -11.217683196337637
      ],
      [
        "▁đúc",
        -11.219092350109316
      ],
      [
        "gậy",
        -11.220465395485054
      ],
      [
        "đục",
        -11.220914671355128
      ],
      [
        "nhặt",
        -11.221441788525228
      ],
      [
        "sưởi",
        -11.22213313691728
      ],
      [
        "▁đắng",
        -11.225231450248756
      ],
      [
        "▁su",
        -11.22538990443968
      ],
      [
        "▁download",
        -11.2254590301712
      ],
      [
        "▁chắn",
        -11.22654965713968
      ],
      [
        "▁68",
        -11.227223263994077
      ],
      [
        "rát",
        -11.228044132165577
      ],
      [
        "▁forum",
        -11.228596894097626
      ],
      [
        "▁rễ",
        -11.229113716094773
      ],
      [
        "cấy",
        -11.232000084503834
      ],
      [
        "▁se",
        -11.232931710038596
      ],
      [
        "0km",
        -11.234237941169267
      ],
      [
        "lõi",
        -11.234947024683738
      ],
      [
        "▁nghị",
        -11.238215393475594
      ],
      [
        "▁mạ",
        -11.240233142606852
      ],
      [
        "▁keo",
        -11.241446755711294
      ],
      [
        "▁chư",
        -11.241453683702966
      ],
      [
        "▁dọa",
        -11.242326021660608
      ],
      [
        "giòn",
        -11.24240235624362
      ],
      [
        "▁1945",
        -11.24268573651655
      ],
      [
        "▁250",
        -11.24273946336772
      ],
      [
        "▁hấp",
        -11.246381190747098
      ],
      [
        "▁vạch",
        -11.246739720631238
      ],
      [
        "▁tóm",
        -11.247957938031254
      ],
      [
        "ũ",
        -11.249321546850132
      ],
      [
        "tồi",
        -11.24948472547152
      ],
      [
        "nản",
        -11.250391929984987
      ],
      [
        "▁sen",
        -11.251114385362891
      ],
      [
        "▁cản",
        -11.253025184457544
      ],
      [
        "▁vuốt",
        -11.25534691617566
      ],
      [
        "loãng",
        -11.258243221809666
      ],
      [
        "kèo",
        -11.258468151349431
      ],
      [
        "▁vòi",
        -11.258700709073237
      ],
      [
        "sót",
        -11.259100548698813
      ],
      [
        "▁đu",
        -11.260566106228415
      ],
      [
        "sấy",
        -11.261910399432876
      ],
      [
        "▁62",
        -11.26263948106958
      ],
      [
        "▁thù",
        -11.263710153325093
      ],
      [
        "ách",
        -11.264143589927649
      ],
      [
        "▁tơ",
        -11.264726194420437
      ],
      [
        "quấn",
        -11.264950717194417
      ],
      [
        "▁ngậm",
        -11.267800155832369
      ],
      [
        "▁mạn",
        -11.268517803249814
      ],
      [
        "▁gay",
        -11.26951750867348
      ],
      [
        "dưa",
        -11.27178502896558
      ],
      [
        "▁700",
        -11.27183565548256
      ],
      [
        "▁laser",
        -11.272124034781328
      ],
      [
        "▁tre",
        -11.273685909473436
      ],
      [
        "▁hao",
        -11.27457402369328
      ],
      [
        "nhíu",
        -11.274771344938271
      ],
      [
        "ực",
        -11.277204556072675
      ],
      [
        "▁lệch",
        -11.278816921497455
      ],
      [
        "nấy",
        -11.280283029536193
      ],
      [
        "sập",
        -11.280556528924947
      ],
      [
        "▁khinh",
        -11.281496987012376
      ],
      [
        "▁phú",
        -11.282285568803422
      ],
      [
        "▁bùn",
        -11.282593990859247
      ],
      [
        "▁cống",
        -11.2831525932187
      ],
      [
        "▁gò",
        -11.283604241415055
      ],
      [
        "▁lữ",
        -11.28461722275449
      ],
      [
        "ội",
        -11.284635344256532
      ],
      [
        "▁đao",
        -11.284687024422718
      ],
      [
        "sâm",
        -11.28516184489908
      ],
      [
        "▁tụ",
        -11.286835485011268
      ],
      [
        "▁inox",
        -11.288550642714586
      ],
      [
        "▁gas",
        -11.290051670243178
      ],
      [
        "▁nghịch",
        -11.290191664304851
      ],
      [
        "bưởi",
        -11.292425069748097
      ],
      [
        "▁phê",
        -11.292942829776283
      ],
      [
        "▁nách",
        -11.29348473284266
      ],
      [
        "▁vọng",
        -11.295249596835564
      ],
      [
        "ễ",
        -11.295563450862948
      ],
      [
        "thìa",
        -11.295674492767471
      ],
      [
        "▁dọ",
        -11.29693544185387
      ],
      [
        "xóm",
        -11.29700980304735
      ],
      [
        "ắp",
        -11.297999730199937
      ],
      [
        "ngặt",
        -11.29844056053558
      ],
      [
        "▁gen",
        -11.299321233871408
      ],
      [
        "▁1999",
        -11.299579369055952
      ],
      [
        "ẹt",
        -11.301971606391062
      ],
      [
        "▁chớp",
        -11.303707481578227
      ],
      [
        "▁cán",
        -11.305164823124816
      ],
      [
        "cừu",
        -11.310364802305862
      ],
      [
        "▁comment",
        -11.31099471322324
      ],
      [
        "▁tật",
        -11.311608975458116
      ],
      [
        "đặn",
        -11.313847057113636
      ],
      [
        "▁sù",
        -11.31415512140308
      ],
      [
        "▁xô",
        -11.315865880487808
      ],
      [
        "▁dải",
        -11.316315775448544
      ],
      [
        "▁nè",
        -11.317032612272644
      ],
      [
        "tát",
        -11.317482050449124
      ],
      [
        "khử",
        -11.31913364254053
      ],
      [
        "▁iphone",
        -11.319656691532533
      ],
      [
        "▁nảy",
        -11.319921141993197
      ],
      [
        "thốt",
        -11.320348669923538
      ],
      [
        "õm",
        -11.32175153895006
      ],
      [
        "▁new",
        -11.321798353387583
      ],
      [
        "▁golf",
        -11.322161712828825
      ],
      [
        "▁sét",
        -11.32505645062637
      ],
      [
        "▁lấ",
        -11.32541878329559
      ],
      [
        "▁tá",
        -11.328491383714784
      ],
      [
        "▁show",
        -11.328699909589972
      ],
      [
        "▁wifi",
        -11.32886334983522
      ],
      [
        "rạn",
        -11.330363098290295
      ],
      [
        "ị",
        -11.330506703177203
      ],
      [
        "9",
        -11.333708185786993
      ],
      [
        "ọ",
        -11.334825880356602
      ],
      [
        "▁vu",
        -11.334961111196383
      ],
      [
        "ốt",
        -11.336013183822557
      ],
      [
        "ván",
        -11.336272194278644
      ],
      [
        "mồm",
        -11.337217368774343
      ],
      [
        "ấy",
        -11.337529465650514
      ],
      [
        "gục",
        -11.33774697282737
      ],
      [
        "kép",
        -11.338895304989125
      ],
      [
        "▁xoắn",
        -11.33897195980259
      ],
      [
        "▁uy",
        -11.339008770922035
      ],
      [
        "▁lặng",
        -11.339656333154444
      ],
      [
        "▁thúc",
        -11.340843800963423
      ],
      [
        "▁dâm",
        -11.341817481940945
      ],
      [
        "▁bắp",
        -11.342271424566032
      ],
      [
        "ĩ",
        -11.342720893675304
      ],
      [
        "▁thêu",
        -11.343157299245158
      ],
      [
        "lốp",
        -11.347008954121003
      ],
      [
        "ích",
        -11.34755246125241
      ],
      [
        "▁61",
        -11.34837964138266
      ],
      [
        "▁bê",
        -11.350401583528448
      ],
      [
        "▁mãn",
        -11.35250496180528
      ],
      [
        "kìm",
        -11.353709912993644
      ],
      [
        "▁acid",
        -11.3551096477332
      ],
      [
        "▁ngưỡng",
        -11.355182609338074
      ],
      [
        "blowjob",
        -11.355635029171486
      ],
      [
        "▁hé",
        -11.356215861805756
      ],
      [
        "▁360",
        -11.356521012427647
      ],
      [
        "ên",
        -11.357043763088337
      ],
      [
        "nhuộm",
        -11.358178063796435
      ],
      [
        "▁mưu",
        -11.358511639566796
      ],
      [
        "▁xà",
        -11.359114835130098
      ],
      [
        "gấu",
        -11.359351685106876
      ],
      [
        "rải",
        -11.360198934869896
      ],
      [
        "▁xung",
        -11.36222036304902
      ],
      [
        "▁ngô",
        -11.36450326230936
      ],
      [
        "▁há",
        -11.36522932590626
      ],
      [
        "▁sánh",
        -11.365567759656669
      ],
      [
        "▁phà",
        -11.367208064813031
      ],
      [
        "thắp",
        -11.36736731921368
      ],
      [
        "▁hùng",
        -11.367633083730777
      ],
      [
        "khóe",
        -11.370916753207691
      ],
      [
        "▁nế",
        -11.371049987917548
      ],
      [
        "cúp",
        -11.37271887030253
      ],
      [
        "▁bồ",
        -11.3728108761752
      ],
      [
        "đạm",
        -11.373546319919743
      ],
      [
        "toát",
        -11.377438332480764
      ],
      [
        "▁tra",
        -11.37757836563308
      ],
      [
        "▁nhượng",
        -11.377592278080025
      ],
      [
        "▁album",
        -11.378308939017858
      ],
      [
        "chốc",
        -11.37879786541901
      ],
      [
        "▁nang",
        -11.37913907984695
      ],
      [
        "▁xua",
        -11.379324208064869
      ],
      [
        "▁xi",
        -11.380456100501588
      ],
      [
        "rẽ",
        -11.380645018913588
      ],
      [
        "lụa",
        -11.381087423431298
      ],
      [
        "▁trơn",
        -11.382605262493083
      ],
      [
        "▁bè",
        -11.3836371040376
      ],
      [
        "▁led",
        -11.384571891426594
      ],
      [
        "gốm",
        -11.38853190643929
      ],
      [
        "▁nhì",
        -11.388557271381528
      ],
      [
        "▁full",
        -11.389314119731829
      ],
      [
        "▁bóp",
        -11.39008515292764
      ],
      [
        "▁110",
        -11.390307858539956
      ],
      [
        "▁bại",
        -11.390845526335372
      ],
      [
        "▁lu",
        -11.390930816868067
      ],
      [
        "en",
        -11.391036149607377
      ],
      [
        "bỏng",
        -11.391059132532558
      ],
      [
        "▁google",
        -11.393657789432323
      ],
      [
        "▁tục",
        -11.395038562469288
      ],
      [
        "▁điệp",
        -11.395853525955776
      ],
      [
        "▁nhánh",
        -11.397545317920526
      ],
      [
        "lén",
        -11.399028066561424
      ],
      [
        "ảy",
        -11.399755566037287
      ],
      [
        "ỳ",
        -11.40466108591546
      ],
      [
        "ẻo",
        -11.405617830505678
      ],
      [
        "áo",
        -11.409179960480866
      ],
      [
        "▁84",
        -11.410448974908531
      ],
      [
        "▁soạn",
        -11.410902607948582
      ],
      [
        "▁ngân",
        -11.41152523257682
      ],
      [
        "trói",
        -11.412067881139716
      ],
      [
        "▁điệu",
        -11.412250500062516
      ],
      [
        "▁nhai",
        -11.41302011861804
      ],
      [
        "▁mòn",
        -11.413814595688866
      ],
      [
        "▁ngả",
        -11.415050861859852
      ],
      [
        "nguội",
        -11.4154458844822
      ],
      [
        "lường",
        -11.41674434392327
      ],
      [
        "▁triệt",
        -11.416827569894966
      ],
      [
        "▁tồn",
        -11.41686994434234
      ],
      [
        "hái",
        -11.41710508623517
      ],
      [
        "▁ngắt",
        -11.41769296141395
      ],
      [
        "▁sắm",
        -11.41797419380972
      ],
      [
        "▁oán",
        -11.419474040891457
      ],
      [
        "▁thuyết",
        -11.42027570739612
      ],
      [
        "▁ngũ",
        -11.420733965449225
      ],
      [
        "▁hứng",
        -11.420961699527494
      ],
      [
        "▁rớt",
        -11.422056036240702
      ],
      [
        "ạp",
        -11.422809207010884
      ],
      [
        "▁nhí",
        -11.423396303938786
      ],
      [
        "gáy",
        -11.423560449517616
      ],
      [
        "ẳng",
        -11.424696958135758
      ],
      [
        "luộc",
        -11.42490406016905
      ],
      [
        "ối",
        -11.426890573231962
      ],
      [
        "▁1990",
        -11.427982783959743
      ],
      [
        "▁dục",
        -11.428749681403652
      ],
      [
        "▁oxy",
        -11.431252789050795
      ],
      [
        "▁rong",
        -11.43250122020218
      ],
      [
        "▁qui",
        -11.43405847077817
      ],
      [
        "▁phật",
        -11.434351367499003
      ],
      [
        "tạng",
        -11.434471227968782
      ],
      [
        "▁hoạt",
        -11.435064665443836
      ],
      [
        "ợp",
        -11.4360690813841
      ],
      [
        "▁binh",
        -11.436268279157575
      ],
      [
        "vâng",
        -11.436342159175345
      ],
      [
        "vắt",
        -11.43635349551147
      ],
      [
        "▁xì",
        -11.437132669293346
      ],
      [
        "▁chat",
        -11.43715122834207
      ],
      [
        "▁bong",
        -11.437650878608334
      ],
      [
        "ngỡ",
        -11.438846374296586
      ],
      [
        "▁cholesterol",
        -11.439415332514102
      ],
      [
        "rước",
        -11.440176475132834
      ],
      [
        "nếm",
        -11.440183575607463
      ],
      [
        "hổng",
        -11.440554295618597
      ],
      [
        "ầu",
        -11.443392817202652
      ],
      [
        "rót",
        -11.443777582123904
      ],
      [
        "ít",
        -11.444197804231797
      ],
      [
        "vặt",
        -11.444396532145884
      ],
      [
        "▁66",
        -11.44514640955258
      ],
      [
        "▁rét",
        -11.44597056015164
      ],
      [
        "ương",
        -11.446305068366302
      ],
      [
        "ẹ",
        -11.446880211761927
      ],
      [
        "▁doanh",
        -11.44794364156748
      ],
      [
        "▁tĩnh",
        -11.450579007809331
      ],
      [
        "▁phước",
        -11.451461342528606
      ],
      [
        "▁rối",
        -11.452293366795894
      ],
      [
        "▁ứng",
        -11.452836583957303
      ],
      [
        "▁xích",
        -11.453324915654475
      ],
      [
        "rốt",
        -11.45432757498198
      ],
      [
        "▁hào",
        -11.454599112048124
      ],
      [
        "nhấc",
        -11.454995657016545
      ],
      [
        "▁robot",
        -11.45506880693068
      ],
      [
        "nhọn",
        -11.457746799803113
      ],
      [
        "nhồi",
        -11.45827004569841
      ],
      [
        "▁hung",
        -11.459331553364756
      ],
      [
        "▁cạ",
        -11.459469747479572
      ],
      [
        "▁this",
        -11.460643355055687
      ],
      [
        "hardcore",
        -11.462197655538006
      ],
      [
        "tụt",
        -11.462786433756689
      ],
      [
        "▁nôn",
        -11.46481686393252
      ],
      [
        "▁kỵ",
        -11.464844527538297
      ],
      [
        "▁mầu",
        -11.465668108908968
      ],
      [
        "bìa",
        -11.46594574032893
      ],
      [
        "siết",
        -11.466114185737052
      ],
      [
        "▁88",
        -11.466590092739157
      ],
      [
        "▁73",
        -11.467123241380682
      ],
      [
        "▁khấu",
        -11.47043269795783
      ],
      [
        "▁org",
        -11.470584226456651
      ],
      [
        "▁check",
        -11.470939281412909
      ],
      [
        "▁71",
        -11.472178883105943
      ],
      [
        "▁like",
        -11.475227106444844
      ],
      [
        "▁gel",
        -11.475974309979785
      ],
      [
        "▁1900",
        -11.476458511237173
      ],
      [
        "xịt",
        -11.478131268604177
      ],
      [
        "▁sỹ",
        -11.479062899823944
      ],
      [
        "ăng",
        -11.479790882741131
      ],
      [
        "▁tiềm",
        -11.480395192055845
      ],
      [
        "▁tiễn",
        -11.480525927021226
      ],
      [
        "▁vụn",
        -11.480631392460952
      ],
      [
        "ẹp",
        -11.481980096603795
      ],
      [
        "▁thảo",
        -11.483099002019934
      ],
      [
        "sầm",
        -11.483147526495811
      ],
      [
        "ngất",
        -11.483177005685034
      ],
      [
        "ằm",
        -11.483995495289973
      ],
      [
        "▁trầ",
        -11.485786339773568
      ],
      [
        "▁69",
        -11.485845944078774
      ],
      [
        "kẹt",
        -11.486555980488957
      ],
      [
        "▁chò",
        -11.488567131104707
      ],
      [
        "▁calo",
        -11.49033232277243
      ],
      [
        "chuồng",
        -11.490991070229146
      ],
      [
        "dép",
        -11.492259420484304
      ],
      [
        "▁670",
        -11.49242652577159
      ],
      [
        "▁tánh",
        -11.493641449467214
      ],
      [
        "▁thính",
        -11.493884666894749
      ],
      [
        "▁li",
        -11.495100851784064
      ],
      [
        "ềnh",
        -11.495108775599071
      ],
      [
        "dắt",
        -11.496241182551028
      ],
      [
        "huyệt",
        -11.497242080477488
      ],
      [
        "thiếp",
        -11.497667337533436
      ],
      [
        "▁247",
        -11.497990606803098
      ],
      [
        "suýt",
        -11.498406320425527
      ],
      [
        "lăm",
        -11.498809323521362
      ],
      [
        "thẳm",
        -11.49981786605766
      ],
      [
        "▁thoái",
        -11.501404447353222
      ],
      [
        "▁admin",
        -11.504119295337018
      ],
      [
        "mốt",
        -11.507409269197083
      ],
      [
        "é",
        -11.507673342898002
      ],
      [
        "▁gym",
        -11.508462887816084
      ],
      [
        "▁67",
        -11.509020181945084
      ],
      [
        "nghẹt",
        -11.511884149434726
      ],
      [
        "▁xôn",
        -11.513052990103066
      ],
      [
        "nhái",
        -11.516509513675263
      ],
      [
        "kẹp",
        -11.518449981478964
      ],
      [
        "thủng",
        -11.518605762545594
      ],
      [
        "ửng",
        -11.518806361872048
      ],
      [
        "▁vung",
        -11.518819530772175
      ],
      [
        "▁mộc",
        -11.519019767372136
      ],
      [
        "ổi",
        -11.519321477295923
      ],
      [
        "▁thiết",
        -11.519468733724018
      ],
      [
        "▁trừng",
        -11.52122731856309
      ],
      [
        "ây",
        -11.522044928612344
      ],
      [
        "ải",
        -11.52340004731556
      ],
      [
        "▁tống",
        -11.523658573585127
      ],
      [
        "▁đả",
        -11.524004951762231
      ],
      [
        "tảng",
        -11.526651009930571
      ],
      [
        "▁rang",
        -11.526989446665832
      ],
      [
        "▁window",
        -11.527199652257387
      ],
      [
        "bóc",
        -11.527349031281474
      ],
      [
        "mép",
        -11.527696807956854
      ],
      [
        "ẫy",
        -11.529699274261326
      ],
      [
        "▁tần",
        -11.529868422589882
      ],
      [
        "us",
        -11.529892225484389
      ],
      [
        "▁views",
        -11.530801590513477
      ],
      [
        "ậy",
        -11.531017807259785
      ],
      [
        "▁code",
        -11.53291999597828
      ],
      [
        "▁card",
        -11.53418512669505
      ],
      [
        "▁khoác",
        -11.534378134738752
      ],
      [
        "▁bạo",
        -11.53510763562104
      ],
      [
        "▁ru",
        -11.535155810628744
      ],
      [
        "▁xúc",
        -11.535956176595937
      ],
      [
        "kẽm",
        -11.537185838044412
      ],
      [
        "▁bách",
        -11.537942017339478
      ],
      [
        "sầu",
        -11.538071030245364
      ],
      [
        "▁khiếp",
        -11.53991999324472
      ],
      [
        "▁viế",
        -11.541284838700053
      ],
      [
        "▁1998",
        -11.542077889803393
      ],
      [
        "▁mọ",
        -11.54213009862608
      ],
      [
        "▁nhạy",
        -11.542358430851738
      ],
      [
        "▁menu",
        -11.54373274226057
      ],
      [
        "man",
        -11.544830855127932
      ],
      [
        "▁căm",
        -11.545080806287842
      ],
      [
        "vọt",
        -11.5478036588109
      ],
      [
        "gặt",
        -11.552310404371386
      ],
      [
        "▁98",
        -11.554932447784346
      ],
      [
        "▁cúm",
        -11.555616870448285
      ],
      [
        "▁ngây",
        -11.557750259676798
      ],
      [
        "ngạo",
        -11.558931108806942
      ],
      [
        "khỏa",
        -11.559494019635832
      ],
      [
        "▁bừ",
        -11.55952327472522
      ],
      [
        "xài",
        -11.561061646199558
      ],
      [
        "ật",
        -11.561686502565578
      ],
      [
        "▁nhậu",
        -11.56350604645568
      ],
      [
        "▁lặp",
        -11.563774378278763
      ],
      [
        "iều",
        -11.56511595925802
      ],
      [
        "ếch",
        -11.56552603644061
      ],
      [
        "ỗi",
        -11.566529975398335
      ],
      [
        "chùm",
        -11.567042904042092
      ],
      [
        "▁ràng",
        -11.567376672374335
      ],
      [
        "▁container",
        -11.568312176935288
      ],
      [
        "▁site",
        -11.568314296870788
      ],
      [
        "nhuyễn",
        -11.56860142000204
      ],
      [
        "▁lột",
        -11.569671678131456
      ],
      [
        "▁chủng",
        -11.570284909473804
      ],
      [
        "▁tộ",
        -11.570636063374902
      ],
      [
        "▁nhục",
        -11.571061072745175
      ],
      [
        "▁voi",
        -11.571279590638063
      ],
      [
        "bún",
        -11.572532926640026
      ],
      [
        "▁té",
        -11.572537716165227
      ],
      [
        "▁180",
        -11.57375291605557
      ],
      [
        "xít",
        -11.575649941024638
      ],
      [
        "ộ",
        -11.575655796173452
      ],
      [
        "▁huyền",
        -11.576190903842448
      ],
      [
        "▁hạnh",
        -11.576368029461866
      ],
      [
        "ú",
        -11.576706008977348
      ],
      [
        "▁tị",
        -11.577557325289868
      ],
      [
        "▁lam",
        -11.580121865854924
      ],
      [
        "▁hoà",
        -11.580409907841467
      ],
      [
        "▁79",
        -11.58058306184919
      ],
      [
        "q",
        -11.581325248094874
      ],
      [
        "ữa",
        -11.581524383579069
      ],
      [
        "▁cự",
        -11.583250376277796
      ],
      [
        "hãm",
        -11.584244469886745
      ],
      [
        "▁cu",
        -11.584695645714978
      ],
      [
        "▁sạ",
        -11.585969890099074
      ],
      [
        "▁trưng",
        -11.586009148877691
      ],
      [
        "ai",
        -11.5871011504942
      ],
      [
        "▁chấp",
        -11.588241719597915
      ],
      [
        "land",
        -11.588660621513954
      ],
      [
        "▁nhá",
        -11.589006202101304
      ],
      [
        "▁luân",
        -11.589592704621138
      ],
      [
        "vùi",
        -11.592828741638078
      ],
      [
        "khay",
        -11.594117967252922
      ],
      [
        "▁khỉ",
        -11.59427176547218
      ],
      [
        "▁trá",
        -11.594564890001877
      ],
      [
        "bọt",
        -11.595751653119663
      ],
      [
        "mập",
        -11.596065272323694
      ],
      [
        "mạc",
        -11.596506767252604
      ],
      [
        "▁sút",
        -11.597171094542446
      ],
      [
        "ươm",
        -11.59789860786674
      ],
      [
        "▁tro",
        -11.598252121088516
      ],
      [
        "▁khắ",
        -11.600356524639636
      ],
      [
        "ngỏ",
        -11.6005042650065
      ],
      [
        "▁tước",
        -11.601071227915169
      ],
      [
        "ra",
        -11.602016032812342
      ],
      [
        "▁86",
        -11.602589699701912
      ],
      [
        "z",
        -11.60300532713802
      ],
      [
        "í",
        -11.607021517841146
      ],
      [
        "lụy",
        -11.607265308772243
      ],
      [
        "▁thối",
        -11.607721965645098
      ],
      [
        "▁viễn",
        -11.607851634873638
      ],
      [
        "xoáy",
        -11.611831449662674
      ],
      [
        "buốt",
        -11.612387421108425
      ],
      [
        "▁lộc",
        -11.612780661460167
      ],
      [
        "▁khéo",
        -11.613182221693531
      ],
      [
        "▁khoẻ",
        -11.614272072595474
      ],
      [
        "▁1997",
        -11.615411220256648
      ],
      [
        "▁chấn",
        -11.617320211300218
      ],
      [
        "ỗ",
        -11.61895801609972
      ],
      [
        "báu",
        -11.619796922572656
      ],
      [
        "mùng",
        -11.620393569906703
      ],
      [
        "▁vần",
        -11.620466118190905
      ],
      [
        "▁khiếm",
        -11.622364198672328
      ],
      [
        "ắn",
        -11.622513164893965
      ],
      [
        "▁cau",
        -11.623093657292374
      ],
      [
        "▁sừng",
        -11.62357073560069
      ],
      [
        "▁tràng",
        -11.623785722893768
      ],
      [
        "▁xoá",
        -11.62534244515237
      ],
      [
        "▁tang",
        -11.626243230165416
      ],
      [
        "▁lậ",
        -11.626741337265283
      ],
      [
        "▁xỉ",
        -11.628181509989624
      ],
      [
        "▁nạ",
        -11.628740800485366
      ],
      [
        "▁thà",
        -11.62904118703485
      ],
      [
        "▁81",
        -11.63082859064725
      ],
      [
        "▁1954",
        -11.63104721451939
      ],
      [
        "ằn",
        -11.631146391595802
      ],
      [
        "mài",
        -11.63213931588137
      ],
      [
        "▁nón",
        -11.632214085705236
      ],
      [
        "▁chì",
        -11.633462198971834
      ],
      [
        "phiến",
        -11.633741861451714
      ],
      [
        "bạt",
        -11.633813734969356
      ],
      [
        "rập",
        -11.635110988092125
      ],
      [
        "▁130",
        -11.635158869448128
      ],
      [
        "▁hăng",
        -11.635196813585798
      ],
      [
        "▁76",
        -11.63755140220871
      ],
      [
        "vẫy",
        -11.637616146007012
      ],
      [
        "nhúng",
        -11.638168448351037
      ],
      [
        "khít",
        -11.638202490734932
      ],
      [
        "▁bã",
        -11.63986745878944
      ],
      [
        "kìa",
        -11.640851682337436
      ],
      [
        "▁ti",
        -11.641201780131798
      ],
      [
        "▁sá",
        -11.643051492587144
      ],
      [
        "▁xứng",
        -11.643322341544144
      ],
      [
        "▁phẳng",
        -11.644162683277978
      ],
      [
        "▁cuồng",
        -11.644553720079973
      ],
      [
        "▁mụ",
        -11.645609084249145
      ],
      [
        "hãnh",
        -11.64710457945738
      ],
      [
        "▁yoga",
        -11.65025431051115
      ],
      [
        "hợt",
        -11.65047281011142
      ],
      [
        "ỉnh",
        -11.650802807231615
      ],
      [
        "▁nhã",
        -11.650881673967616
      ],
      [
        "▁77",
        -11.652140570390864
      ],
      [
        "▁1992",
        -11.65260660647121
      ],
      [
        "▁92",
        -11.654406948397206
      ],
      [
        "▁test",
        -11.65512277312536
      ],
      [
        "▁for",
        -11.655138537550638
      ],
      [
        "▁manh",
        -11.655975714495948
      ],
      [
        "resort",
        -11.656991992282032
      ],
      [
        "▁tró",
        -11.657269095479997
      ],
      [
        "▁ngừa",
        -11.657315797369897
      ],
      [
        "rotected",
        -11.657464239550013
      ],
      [
        "▁78",
        -11.65907161706978
      ],
      [
        "vợt",
        -11.660953831789405
      ],
      [
        "▁lả",
        -11.662065324035852
      ],
      [
        "▁87",
        -11.662112901765914
      ],
      [
        "▁chay",
        -11.662618154226706
      ],
      [
        "cược",
        -11.66369581389691
      ],
      [
        "▁mú",
        -11.664328994440837
      ],
      [
        "▁1995",
        -11.66466036567485
      ],
      [
        "▁lim",
        -11.664868120252542
      ],
      [
        "nhộn",
        -11.665277264846516
      ],
      [
        "▁trinh",
        -11.667122796123223
      ],
      [
        "gân",
        -11.668575144589978
      ],
      [
        "▁j",
        -11.66887537200349
      ],
      [
        "▁83",
        -11.668897135701302
      ],
      [
        "▁101",
        -11.669504929223868
      ],
      [
        "▁bầy",
        -11.670236772074771
      ],
      [
        "▁dặn",
        -11.675196318810618
      ],
      [
        "▁82",
        -11.675662205157256
      ],
      [
        "ngàng",
        -11.679504490362747
      ],
      [
        "hoãn",
        -11.679773235156034
      ],
      [
        "vấp",
        -11.680439927332332
      ],
      [
        "cọc",
        -11.680440860905009
      ],
      [
        "▁q",
        -11.684462264999596
      ],
      [
        "đấm",
        -11.685673685584216
      ],
      [
        "▁cập",
        -11.685934076151447
      ],
      [
        "▁phán",
        -11.689474785450985
      ],
      [
        "▁dĩ",
        -11.690675175514071
      ],
      [
        "õ",
        -11.69228063090614
      ],
      [
        "▁phen",
        -11.692774302454056
      ],
      [
        "ưởng",
        -11.694415549802208
      ],
      [
        "café",
        -11.69444049745414
      ],
      [
        "▁lược",
        -11.696685699588048
      ],
      [
        "ette",
        -11.69743585855191
      ],
      [
        "cưỡi",
        -11.697793804184233
      ],
      [
        "▁thoả",
        -11.699863342811822
      ],
      [
        "▁74",
        -11.700028297180516
      ],
      [
        "▁tạp",
        -11.700555945068814
      ],
      [
        "▁lắng",
        -11.700653898998842
      ],
      [
        "hắt",
        -11.701213497983256
      ],
      [
        "▁lưỡng",
        -11.703598437369948
      ],
      [
        "▁lĩnh",
        -11.7056467040571
      ],
      [
        "thiệp",
        -11.709705993000044
      ],
      [
        "dời",
        -11.710158891440884
      ],
      [
        "ngước",
        -11.712820984745646
      ],
      [
        "▁biện",
        -11.713383107093016
      ],
      [
        "▁bo",
        -11.71406276069493
      ],
      [
        "▁1968",
        -11.714162236941672
      ],
      [
        "0kg",
        -11.714332114493564
      ],
      [
        "▁sàng",
        -11.714811600851103
      ],
      [
        "ngẩn",
        -11.71519841249017
      ],
      [
        "▁bì",
        -11.71528152977707
      ],
      [
        "▁na",
        -11.71532502249047
      ],
      [
        "▁8h",
        -11.715640315841194
      ],
      [
        "▁spam",
        -11.716525118047468
      ],
      [
        "lóe",
        -11.717373058806803
      ],
      [
        "▁125",
        -11.718139838670124
      ],
      [
        "hòm",
        -11.718232748667148
      ],
      [
        "▁đàm",
        -11.719941391844452
      ],
      [
        "▁96",
        -11.719956681551356
      ],
      [
        "đũa",
        -11.72021132759931
      ],
      [
        "điếu",
        -11.721725385266629
      ],
      [
        "▁nhiệm",
        -11.722165074618614
      ],
      [
        "▁tản",
        -11.722215582199722
      ],
      [
        "▁size",
        -11.723108821589063
      ],
      [
        "ngửa",
        -11.72365916517712
      ],
      [
        "▁vá",
        -11.724406341622542
      ],
      [
        "▁đai",
        -11.727005235098927
      ],
      [
        "▁mobile",
        -11.727982154362008
      ],
      [
        "▁que",
        -11.72840871920746
      ],
      [
        "ình",
        -11.730905836543291
      ],
      [
        "▁ưng",
        -11.731267415494932
      ],
      [
        "▁sẻ",
        -11.73140969830251
      ],
      [
        "▁piano",
        -11.731824433712736
      ],
      [
        "▁phụng",
        -11.73234719379237
      ],
      [
        "ăm",
        -11.73389381082476
      ],
      [
        "▁khố",
        -11.73733521564982
      ],
      [
        "▁giã",
        -11.737927361731808
      ],
      [
        "tr",
        -11.7379610225849
      ],
      [
        "▁ngư",
        -11.73881208052707
      ],
      [
        "▁bả",
        -11.739865579201904
      ],
      [
        "▁chen",
        -11.740216701125997
      ],
      [
        "sấu",
        -11.740632860338437
      ],
      [
        "showbiz",
        -11.740848354511138
      ],
      [
        "bừng",
        -11.74286526410825
      ],
      [
        "gập",
        -11.744153184965487
      ],
      [
        "▁hiểm",
        -11.74462206027416
      ],
      [
        "ròng",
        -11.745296934546364
      ],
      [
        "▁phượ",
        -11.74684415855702
      ],
      [
        "10",
        -11.7477345863546
      ],
      [
        "tỳ",
        -11.749197567434049
      ],
      [
        "xui",
        -11.75023108499362
      ],
      [
        "▁bus",
        -11.75038601498867
      ],
      [
        "▁mồ",
        -11.75072222038554
      ],
      [
        "▁mại",
        -11.750794164707052
      ],
      [
        "tẩm",
        -11.750815890892287
      ],
      [
        "▁model",
        -11.752660493182889
      ],
      [
        "trút",
        -11.75292193633388
      ],
      [
        "chọi",
        -11.753168877529475
      ],
      [
        "0",
        -11.754151956909796
      ],
      [
        "viếng",
        -11.754361338315062
      ],
      [
        "hốt",
        -11.75721844154534
      ],
      [
        "▁chật",
        -11.75871420612759
      ],
      [
        "▁chảo",
        -11.760540768631396
      ],
      [
        "▁1996",
        -11.760805278266243
      ],
      [
        "liếm",
        -11.760914860564906
      ],
      [
        "hiếp",
        -11.762750844383447
      ],
      [
        "uyễn",
        -11.763017379497189
      ],
      [
        "rưỡ",
        -11.7630705757747
      ],
      [
        "▁nhún",
        -11.76461318747098
      ],
      [
        "▁hormone",
        -11.765209057152829
      ],
      [
        "▁thống",
        -11.765263188253886
      ],
      [
        "▁nhung",
        -11.765486825907509
      ],
      [
        "cẩu",
        -11.765581744653296
      ],
      [
        "chập",
        -11.7666431253954
      ],
      [
        "▁nhũ",
        -11.767789953966156
      ],
      [
        "▁euro",
        -11.767920917057976
      ],
      [
        "chèn",
        -11.76792170948803
      ],
      [
        "gọt",
        -11.769879607302828
      ],
      [
        "▁115",
        -11.769913028290746
      ],
      [
        "▁đờ",
        -11.770989005340049
      ],
      [
        "▁91",
        -11.77135403590915
      ],
      [
        "▁lang",
        -11.77183019392782
      ],
      [
        "▁kiều",
        -11.772125852519538
      ],
      [
        "▁xạ",
        -11.772520728913292
      ],
      [
        "▁ghê",
        -11.775241463659428
      ],
      [
        "▁đương",
        -11.77661665798784
      ],
      [
        "▁hì",
        -11.776855307150836
      ],
      [
        "▁phai",
        -11.77742546829398
      ],
      [
        "nhốt",
        -11.77978041246208
      ],
      [
        "▁1980",
        -11.780075921889454
      ],
      [
        "méo",
        -11.780707416694728
      ],
      [
        "chéo",
        -11.780855884713471
      ],
      [
        "▁nhả",
        -11.783416093874113
      ],
      [
        "▁quát",
        -11.78419035165921
      ],
      [
        "dè",
        -11.785922331087209
      ],
      [
        "▁vác",
        -11.785987069566357
      ],
      [
        "▁89",
        -11.786322974510002
      ],
      [
        "ta",
        -11.787919642172367
      ],
      [
        "▁sả",
        -11.789640356245906
      ],
      [
        "▁thoại",
        -11.795250304629516
      ],
      [
        "sói",
        -11.79646370657593
      ],
      [
        "▁copy",
        -11.796491886888514
      ],
      [
        "▁lú",
        -11.797504078919683
      ],
      [
        "án",
        -11.801136430935786
      ],
      [
        "▁micro",
        -11.801443188476908
      ],
      [
        "▁vạ",
        -11.802378938249456
      ],
      [
        "đẫm",
        -11.803252377405158
      ],
      [
        "▁phô",
        -11.803581963807195
      ],
      [
        "▁rù",
        -11.804005077821175
      ],
      [
        "vặn",
        -11.804420369638091
      ],
      [
        "ới",
        -11.804738656984972
      ],
      [
        "▁123",
        -11.805663497866853
      ],
      [
        "▁nhiễu",
        -11.807886505952794
      ],
      [
        "▁kiềm",
        -11.809220155564365
      ],
      [
        "▁huấn",
        -11.80937937753498
      ],
      [
        "▁97",
        -11.809971075418863
      ],
      [
        "▁xuôi",
        -11.811995948919485
      ],
      [
        "trượng",
        -11.813471745008608
      ],
      [
        "ly",
        -11.813587272213216
      ],
      [
        "ngửi",
        -11.81415006709988
      ],
      [
        "▁balo",
        -11.814466726483095
      ],
      [
        "▁lì",
        -11.8148745106105
      ],
      [
        "▁sô",
        -11.815018589661612
      ],
      [
        "▁ngự",
        -11.816334791505586
      ],
      [
        "sủng",
        -11.816470114083325
      ],
      [
        "két",
        -11.817480568643717
      ],
      [
        "▁mến",
        -11.817953133885707
      ],
      [
        "chót",
        -11.819052704157468
      ],
      [
        "▁160",
        -11.819301779125327
      ],
      [
        "▁tồ",
        -11.819570834290326
      ],
      [
        "▁phỏng",
        -11.82077205740297
      ],
      [
        "dẹp",
        -11.821260701159275
      ],
      [
        "▁93",
        -11.821791141332469
      ],
      [
        "▁vinh",
        -11.82319923210864
      ],
      [
        "▁1994",
        -11.82447070672154
      ],
      [
        "xốp",
        -11.825092064500655
      ],
      [
        "▁108",
        -11.825199187009188
      ],
      [
        "nới",
        -11.826664798294544
      ],
      [
        "▁nhiên",
        -11.827610647159672
      ],
      [
        "▁trúc",
        -11.828059735664327
      ],
      [
        "ermissions",
        -11.829581607941805
      ],
      [
        "f",
        -11.82975706137166
      ],
      [
        "ền",
        -11.830205015681717
      ],
      [
        "▁lẩ",
        -11.830505209678895
      ],
      [
        "▁1993",
        -11.83134640531742
      ],
      [
        "▁chép",
        -11.835180711573656
      ],
      [
        "uý",
        -11.83699425398918
      ],
      [
        "ngoặ",
        -11.837053782048622
      ],
      [
        "ngấm",
        -11.838397072509842
      ],
      [
        "ũng",
        -11.838639990053062
      ],
      [
        "▁dinh",
        -11.83872026153083
      ],
      [
        "éo",
        -11.841570353190637
      ],
      [
        "▁reo",
        -11.842421003516794
      ],
      [
        "▁be",
        -11.843033001626766
      ],
      [
        "▁hèn",
        -11.845466472319362
      ],
      [
        "▁me",
        -11.84582884889177
      ],
      [
        "ồ",
        -11.846776409498489
      ],
      [
        "1979",
        -11.848247262331764
      ],
      [
        "gút",
        -11.850346712368156
      ],
      [
        "uông",
        -11.850677369904547
      ],
      [
        "▁chiêm",
        -11.852107961610516
      ],
      [
        "trèo",
        -11.85326410790752
      ],
      [
        "kheo",
        -11.854469960299411
      ],
      [
        "▁thuỷ",
        -11.85477360578652
      ],
      [
        "tảo",
        -11.85481979137179
      ],
      [
        "sexy",
        -11.854976494962695
      ],
      [
        "▁900",
        -11.85594180134028
      ],
      [
        "▁ngò",
        -11.85681842350163
      ],
      [
        "ằng",
        -11.857459604295617
      ],
      [
        "tẩu",
        -11.857817863240996
      ],
      [
        "▁noi",
        -11.85870945183082
      ],
      [
        "oải",
        -11.859145000930146
      ],
      [
        "▁cộ",
        -11.859378801868214
      ],
      [
        "▁ass",
        -11.859640060540825
      ],
      [
        "▁tụng",
        -11.860301960291125
      ],
      [
        "đọng",
        -11.861439911216838
      ],
      [
        "▁hỗn",
        -11.862877081290776
      ],
      [
        "▁si",
        -11.86450150092634
      ],
      [
        "▁365",
        -11.865234516270675
      ],
      [
        "văng",
        -11.865897824747757
      ],
      [
        "lam",
        -11.866891021040592
      ],
      [
        "sảnh",
        -11.86899090647159
      ],
      [
        "▁1960",
        -11.869941089535407
      ],
      [
        "▁tuấn",
        -11.86995307058704
      ],
      [
        "▁350",
        -11.870237942927613
      ],
      [
        "▁dố",
        -11.870482049215603
      ],
      [
        "▁lựa",
        -11.870983178124538
      ],
      [
        "▁cẩm",
        -11.871248418605122
      ],
      [
        "ạo",
        -11.87292729698357
      ],
      [
        "▁măng",
        -11.873370859804576
      ],
      [
        "▁set",
        -11.873518276432524
      ],
      [
        "▁2030",
        -11.877549923784333
      ],
      [
        "ắng",
        -11.87819359730588
      ],
      [
        "ổng",
        -11.879024246556147
      ],
      [
        "đắm",
        -11.879037763581229
      ],
      [
        "blogger",
        -11.879246524742111
      ],
      [
        "rãnh",
        -11.87945106881956
      ],
      [
        "▁man",
        -11.880024954398245
      ],
      [
        "xoài",
        -11.881822046768926
      ],
      [
        "tuôn",
        -11.883259461734689
      ],
      [
        "▁duy",
        -11.88511539531929
      ],
      [
        "▁mứ",
        -11.885145487700267
      ],
      [
        "▁showroom",
        -11.885546917955953
      ],
      [
        "mắm",
        -11.886126721750408
      ],
      [
        "▁pho",
        -11.887387842574933
      ],
      [
        "▁cáo",
        -11.889360337320472
      ],
      [
        "bành",
        -11.890318408029357
      ],
      [
        "hổi",
        -11.890735913441793
      ],
      [
        "▁vành",
        -11.891228092536329
      ],
      [
        "es",
        -11.89202570482068
      ],
      [
        "▁điêu",
        -11.892243497687392
      ],
      [
        "▁giác",
        -11.892275126915935
      ],
      [
        "▁tấ",
        -11.89249607484784
      ],
      [
        "thét",
        -11.893579395223178
      ],
      [
        "lồi",
        -11.893648773324069
      ],
      [
        "w",
        -11.895157128537331
      ],
      [
        "▁1991",
        -11.896060324049316
      ],
      [
        "▁lanh",
        -11.896063060188531
      ],
      [
        "▁105",
        -11.898635291337069
      ],
      [
        "▁gom",
        -11.899549135508485
      ],
      [
        "▁phàm",
        -11.901477131331628
      ],
      [
        "nghiến",
        -11.902453442359166
      ],
      [
        "▁lõ",
        -11.9026747473101
      ],
      [
        "▁kè",
        -11.903074417745144
      ],
      [
        "chưởng",
        -11.903449076382724
      ],
      [
        "ang",
        -11.903570352456745
      ],
      [
        "▁bứ",
        -11.903736208053962
      ],
      [
        "▁brun",
        -11.90419823077414
      ],
      [
        "niệu",
        -11.908030266464127
      ],
      [
        "▁mớ",
        -11.908787920099847
      ],
      [
        "▁độn",
        -11.90895236251993
      ],
      [
        "lạy",
        -11.909495353252163
      ],
      [
        "▁lờ",
        -11.910246613724668
      ],
      [
        "búa",
        -11.910930836419809
      ],
      [
        "▁mậ",
        -11.91190656813104
      ],
      [
        "▁khoai",
        -11.914001234194457
      ],
      [
        "▁ship",
        -11.914098732486597
      ],
      [
        "nhát",
        -11.914386407072726
      ],
      [
        "▁140",
        -11.914395775402228
      ],
      [
        "▁chối",
        -11.91510176515347
      ],
      [
        "▁dai",
        -11.91524883325287
      ],
      [
        "rành",
        -11.91640103447901
      ],
      [
        "bưng",
        -11.916918262807624
      ],
      [
        "huỷ",
        -11.919401392225408
      ],
      [
        "▁thỉnh",
        -11.920819186732102
      ],
      [
        "▁flash",
        -11.921654619317875
      ],
      [
        "bướm",
        -11.92227814024282
      ],
      [
        "▁giấ",
        -11.92283506079701
      ],
      [
        "▁bitcoin",
        -11.92472587012373
      ],
      [
        "▁you",
        -11.927187554741248
      ],
      [
        "uất",
        -11.927871659507597
      ],
      [
        "▁logic",
        -11.9279526749923
      ],
      [
        "fanpage",
        -11.929915057664289
      ],
      [
        "▁khả",
        -11.930214442765726
      ],
      [
        "dẫu",
        -11.931212001118386
      ],
      [
        "▁lí",
        -11.931253876093546
      ],
      [
        "▁khoanh",
        -11.933119012143395
      ],
      [
        "yếm",
        -11.933945287277064
      ],
      [
        "▁tịnh",
        -11.934133277779162
      ],
      [
        "nhếch",
        -11.934309149356174
      ],
      [
        "▁ngoạn",
        -11.93470734631097
      ],
      [
        "nung",
        -11.936784718124391
      ],
      [
        "▁súc",
        -11.94017006248637
      ],
      [
        "tits",
        -11.941217881939158
      ],
      [
        "▁thói",
        -11.941444689468709
      ],
      [
        "▁sung",
        -11.94179983183894
      ],
      [
        "nguyền",
        -11.942429379804596
      ],
      [
        "▁gu",
        -11.942505127927395
      ],
      [
        "▁phác",
        -11.9431677673707
      ],
      [
        "▁dường",
        -11.94331458534185
      ],
      [
        "ừng",
        -11.944351570961931
      ],
      [
        "▁form",
        -11.945207689295332
      ],
      [
        "mách",
        -11.946643098008058
      ],
      [
        "▁server",
        -11.946829850207106
      ],
      [
        "▁ngá",
        -11.948176384227478
      ],
      [
        "ến",
        -11.948467668883415
      ],
      [
        "▁1989",
        -11.948864945489497
      ],
      [
        "oai",
        -11.949252574316125
      ],
      [
        "▁1988",
        -11.949784711033168
      ],
      [
        "▁cai",
        -11.950867132254544
      ],
      [
        "▁hen",
        -11.952581298740844
      ],
      [
        "ua",
        -11.95310952838304
      ],
      [
        "▁rộ",
        -11.953542593278865
      ],
      [
        "▁thiêu",
        -11.953582300325214
      ],
      [
        "▁khan",
        -11.955064473252738
      ],
      [
        "▁304",
        -11.955734706383923
      ],
      [
        "1970",
        -11.956182888318722
      ],
      [
        "chuộc",
        -11.95680543716016
      ],
      [
        "▁phượng",
        -11.956837074446618
      ],
      [
        "lìa",
        -11.959748552870884
      ],
      [
        "0ml",
        -11.96059207252804
      ],
      [
        "chèo",
        -11.963519961581529
      ],
      [
        "trỏ",
        -11.96356039231642
      ],
      [
        "ùa",
        -11.964971864965763
      ],
      [
        "▁xú",
        -11.965487552099496
      ],
      [
        "▁rậ",
        -11.96626595019731
      ],
      [
        "▁rộn",
        -11.967487582296968
      ],
      [
        "▁ve",
        -11.967765298785528
      ],
      [
        "mút",
        -11.968596440477745
      ],
      [
        "▁diệu",
        -11.969523644110131
      ],
      [
        "▁102",
        -11.96977902146956
      ],
      [
        "xôi",
        -11.970851595261689
      ],
      [
        "▁quế",
        -11.97195380830678
      ],
      [
        "▁day",
        -11.97282861309106
      ],
      [
        "▁then",
        -11.974289253928957
      ],
      [
        "▁photocopy",
        -11.979318752786275
      ],
      [
        "▁kiệt",
        -11.979397429311652
      ],
      [
        "ngói",
        -11.979870210463282
      ],
      [
        "▁lự",
        -11.979891174939816
      ],
      [
        "▁lượn",
        -11.980707498986412
      ],
      [
        "rít",
        -11.98104890534966
      ],
      [
        "cày",
        -11.982235943032444
      ],
      [
        "phôi",
        -11.982876359644072
      ],
      [
        "▁trân",
        -11.982991984952724
      ],
      [
        "quyên",
        -11.986283691436077
      ],
      [
        "▁hiển",
        -11.988948843340362
      ],
      [
        "▁ri",
        -11.990514268593529
      ],
      [
        "▁more",
        -11.990982383372508
      ],
      [
        "uốc",
        -11.9912139336772
      ],
      [
        "ử",
        -11.992772261723358
      ],
      [
        "râm",
        -11.993407057463209
      ],
      [
        "▁toa",
        -11.995352146523516
      ],
      [
        "lầy",
        -11.995402684716783
      ],
      [
        "▁ké",
        -11.995939723314905
      ],
      [
        "bỉ",
        -11.997667831883396
      ],
      [
        "implant",
        -11.997916273389931
      ],
      [
        "xoăn",
        -11.998595602045476
      ],
      [
        "ấng",
        -11.999207650054808
      ],
      [
        "đày",
        -11.999469901694445
      ],
      [
        "biếu",
        -11.999926731764358
      ],
      [
        "▁trêu",
        -12.000014346447028
      ],
      [
        "▁lé",
        -12.000994196335096
      ],
      [
        "củi",
        -12.001041317743908
      ],
      [
        "suôn",
        -12.004178684043714
      ],
      [
        "▁mò",
        -12.0042749180019
      ],
      [
        "▁128",
        -12.005008492015865
      ],
      [
        "▁startup",
        -12.005093929952814
      ],
      [
        "▁94",
        -12.005337601911366
      ],
      [
        "duỗi",
        -12.006347009762782
      ],
      [
        "▁rào",
        -12.0109109919692
      ],
      [
        "▁đán",
        -12.01131396141918
      ],
      [
        "▁mạc",
        -12.01197621814999
      ],
      [
        "▁nú",
        -12.014005716888226
      ],
      [
        "giầy",
        -12.018394767167578
      ],
      [
        "▁chan",
        -12.019390187462356
      ],
      [
        "▁bùng",
        -12.019461115609316
      ],
      [
        "▁lon",
        -12.019541591505664
      ],
      [
        "▁khứ",
        -12.020389513790294
      ],
      [
        "▁chóng",
        -12.021101117721049
      ],
      [
        "rì",
        -12.022663841749823
      ],
      [
        "▁hò",
        -12.024383736530012
      ],
      [
        "▁mu",
        -12.025281326230374
      ],
      [
        "le",
        -12.027128071959863
      ],
      [
        "hất",
        -12.0285277421597
      ],
      [
        "cookie",
        -12.0285301125016
      ],
      [
        "mải",
        -12.030537526213609
      ],
      [
        "chải",
        -12.030985250081478
      ],
      [
        "chóc",
        -12.031810257320268
      ],
      [
        "▁rạch",
        -12.032534583159183
      ],
      [
        "▁mạo",
        -12.032868816422353
      ],
      [
        "trợn",
        -12.03394008543046
      ],
      [
        "▁5m",
        -12.034576592815991
      ],
      [
        "▁fuck",
        -12.034944352797046
      ],
      [
        "áng",
        -12.035283150287803
      ],
      [
        "son",
        -12.035323171740698
      ],
      [
        "1972",
        -12.03569502374267
      ],
      [
        "sụp",
        -12.036771925784535
      ],
      [
        "▁103",
        -12.036891604667831
      ],
      [
        "▁trương",
        -12.037503377817886
      ],
      [
        "▁lộn",
        -12.039000071539377
      ],
      [
        "phất",
        -12.039130817135089
      ],
      [
        "▁vệ",
        -12.04075795422018
      ],
      [
        "sắn",
        -12.041083086443
      ],
      [
        "▁2021",
        -12.041373299168807
      ],
      [
        "ưa",
        -12.041422163517575
      ],
      [
        "phốt",
        -12.042735786155689
      ],
      [
        "▁thịnh",
        -12.043695629711696
      ],
      [
        "▁photo",
        -12.044097405661514
      ],
      [
        "▁tì",
        -12.044145174966957
      ],
      [
        "sấm",
        -12.044487822501637
      ],
      [
        "▁tàng",
        -12.046595814105888
      ],
      [
        "▁nứ",
        -12.047102564305831
      ],
      [
        "▁mề",
        -12.04731163705499
      ],
      [
        "▁trơ",
        -12.047846233960462
      ],
      [
        "▁nhậ",
        -12.050381729056742
      ],
      [
        "▁cù",
        -12.051105343557026
      ],
      [
        "1986",
        -12.0519409524813
      ],
      [
        "ngời",
        -12.052275438565816
      ],
      [
        "▁beta",
        -12.053724885657328
      ],
      [
        "phồng",
        -12.053819786814229
      ],
      [
        "ặt",
        -12.053921821114988
      ],
      [
        "▁dép",
        -12.05402569221723
      ],
      [
        "▁nhuận",
        -12.054289632656875
      ],
      [
        "ửa",
        -12.055442959472122
      ],
      [
        "uống",
        -12.056219820995327
      ],
      [
        "▁z",
        -12.06021558147077
      ],
      [
        "▁bọ",
        -12.061261205702309
      ],
      [
        "▁triề",
        -12.061351008511435
      ],
      [
        "▁xó",
        -12.06142729698325
      ],
      [
        "vít",
        -12.06277017012859
      ],
      [
        "▁phận",
        -12.066919549995635
      ],
      [
        "▁mác",
        -12.067619500530837
      ],
      [
        "hán",
        -12.069153796722274
      ],
      [
        "▁niên",
        -12.069855809511164
      ],
      [
        "cụt",
        -12.070056138392731
      ],
      [
        "khàn",
        -12.070235919220334
      ],
      [
        "▁450",
        -12.070663940278626
      ],
      [
        "▁vali",
        -12.070722672232328
      ],
      [
        "▁nick",
        -12.071215974829284
      ],
      [
        "hừng",
        -12.0720416589204
      ],
      [
        "rỗng",
        -12.072108661876191
      ],
      [
        "khuấy",
        -12.07361946366158
      ],
      [
        "rợn",
        -12.073924252760865
      ],
      [
        "▁220",
        -12.075760184801192
      ],
      [
        "▁nấ",
        -12.076316387819388
      ],
      [
        "bank",
        -12.076403784455922
      ],
      [
        "▁bần",
        -12.076759558107604
      ],
      [
        "▁thầu",
        -12.077777303578518
      ],
      [
        "▁guitar",
        -12.080353131996306
      ],
      [
        "tệp",
        -12.081351903270034
      ],
      [
        "▁khiếu",
        -12.082896202692138
      ],
      [
        "▁bệ",
        -12.083550470527024
      ],
      [
        "▁3000",
        -12.084123258489038
      ],
      [
        "▁nhú",
        -12.084268070971564
      ],
      [
        "▁mix",
        -12.084952223750353
      ],
      [
        "▁nano",
        -12.08555477329523
      ],
      [
        "▁casino",
        -12.085926315088106
      ],
      [
        "tech",
        -12.086155414466498
      ],
      [
        "bái",
        -12.0862939822818
      ],
      [
        "net",
        -12.086924188270473
      ],
      [
        "tặc",
        -12.090207262062057
      ],
      [
        "▁ló",
        -12.090342250805302
      ],
      [
        "11",
        -12.090580331289075
      ],
      [
        "xáo",
        -12.090711379253678
      ],
      [
        "▁m3",
        -12.09129002693552
      ],
      [
        "iếc",
        -12.091940147444928
      ],
      [
        "babe",
        -12.094507542262402
      ],
      [
        "▁sành",
        -12.094706738730434
      ],
      [
        "òa",
        -12.095021423372245
      ],
      [
        "▁vả",
        -12.095434907978406
      ],
      [
        "▁hâm",
        -12.095688976458993
      ],
      [
        "dõi",
        -12.09573349230733
      ],
      [
        "1963",
        -12.096116843012457
      ],
      [
        "▁1982",
        -12.098726589754545
      ],
      [
        "đậy",
        -12.099383383748975
      ],
      [
        "tròng",
        -12.09939892802604
      ],
      [
        "▁170",
        -12.099806835474189
      ],
      [
        "xen",
        -12.100529441387982
      ],
      [
        "ết",
        -12.100730722277428
      ],
      [
        "▁vun",
        -12.10373809842336
      ],
      [
        "▁hosting",
        -12.104867588805693
      ],
      [
        "rán",
        -12.10544454880165
      ],
      [
        "liêm",
        -12.105716599059454
      ],
      [
        "▁giò",
        -12.106111866338518
      ],
      [
        "nín",
        -12.10665864323647
      ],
      [
        "▁nhan",
        -12.107507807533162
      ],
      [
        "chích",
        -12.108659696917142
      ],
      [
        "▁111",
        -12.111422932569262
      ],
      [
        "uẩn",
        -12.111718312682813
      ],
      [
        "dông",
        -12.112488641922784
      ],
      [
        "liu",
        -12.112784335686236
      ],
      [
        "▁soát",
        -12.1138243320925
      ],
      [
        "▁đam",
        -12.114742931779624
      ],
      [
        "bít",
        -12.114851569135457
      ],
      [
        "biếng",
        -12.11513572924276
      ],
      [
        "▁kali",
        -12.115569419946263
      ],
      [
        "òe",
        -12.11569402341348
      ],
      [
        "sáp",
        -12.11697267526864
      ],
      [
        "rơm",
        -12.11972831177816
      ],
      [
        "24",
        -12.120077449827171
      ],
      [
        "hốc",
        -12.120202393767894
      ],
      [
        "▁phổ",
        -12.121580357627714
      ],
      [
        "hớt",
        -12.121730919039248
      ],
      [
        "huệ",
        -12.123282228683587
      ],
      [
        "▁chắp",
        -12.123422015805335
      ],
      [
        "▁neo",
        -12.124045019485788
      ],
      [
        "ầy",
        -12.125513577117916
      ],
      [
        "lốc",
        -12.129358478997291
      ],
      [
        "▁1950",
        -12.131721802666055
      ],
      [
        "▁hoán",
        -12.133402564265374
      ],
      [
        "anh",
        -12.13478321897249
      ],
      [
        "rêu",
        -12.136360197926464
      ],
      [
        "▁vest",
        -12.138152945989033
      ],
      [
        "ruồi",
        -12.139247076295025
      ],
      [
        "▁lồn",
        -12.139816138311042
      ],
      [
        "▁1974",
        -12.140710554373008
      ],
      [
        "1973",
        -12.141675435005048
      ],
      [
        "▁le",
        -12.141934934036112
      ],
      [
        "▁bón",
        -12.142124563197054
      ],
      [
        "hiên",
        -12.14382244507308
      ],
      [
        "quăng",
        -12.144078172964877
      ],
      [
        "▁106",
        -12.14707080847938
      ],
      [
        "▁roi",
        -12.148225422842524
      ],
      [
        "băm",
        -12.150334644710227
      ],
      [
        "la",
        -12.152172345569946
      ],
      [
        "▁bụ",
        -12.152185956719029
      ],
      [
        "trọc",
        -12.15327643091974
      ],
      [
        "▁gỉ",
        -12.153336557606837
      ],
      [
        "shot",
        -12.1533463118496
      ],
      [
        "▁chổ",
        -12.153379580775365
      ],
      [
        "tỏa",
        -12.153806604918213
      ],
      [
        "thuyên",
        -12.153849153114312
      ],
      [
        "com",
        -12.155064863039671
      ],
      [
        "▁hack",
        -12.156352734272136
      ],
      [
        "lùn",
        -12.156782802570548
      ],
      [
        "xát",
        -12.159894468463298
      ],
      [
        "hoa",
        -12.16126092279023
      ],
      [
        "▁chuyền",
        -12.161449307364474
      ],
      [
        "tuột",
        -12.161884537773206
      ],
      [
        "▁giáng",
        -12.162974738281749
      ],
      [
        "ạn",
        -12.164537960969056
      ],
      [
        "▁thí",
        -12.164629399919225
      ],
      [
        "uổng",
        -12.165021632383416
      ],
      [
        "mít",
        -12.165150440726922
      ],
      [
        "xẻ",
        -12.168901520622342
      ],
      [
        "▁trạng",
        -12.16928270476363
      ],
      [
        "thò",
        -12.17066523800026
      ],
      [
        "▁hỏa",
        -12.171958905418007
      ],
      [
        "thoạt",
        -12.172956853349806
      ],
      [
        "điếc",
        -12.175767169244184
      ],
      [
        "rũ",
        -12.178507665806514
      ],
      [
        "gượng",
        -12.178544209468113
      ],
      [
        "▁free",
        -12.17862573568887
      ],
      [
        "▁cty",
        -12.17866808946444
      ],
      [
        "▁hủ",
        -12.179184405460218
      ],
      [
        "▁xế",
        -12.180624019466338
      ],
      [
        "▁bit",
        -12.181157531610458
      ],
      [
        "▁nã",
        -12.182437873504218
      ],
      [
        "▁hưng",
        -12.182550293644066
      ],
      [
        "nghẹn",
        -12.18320795047935
      ],
      [
        "phớ",
        -12.183674280525318
      ],
      [
        "▁share",
        -12.184256360344127
      ],
      [
        "violet",
        -12.185636139146132
      ],
      [
        "uýp",
        -12.185752054730312
      ],
      [
        "▁240",
        -12.18598674427994
      ],
      [
        "▁tú",
        -12.187166063179918
      ],
      [
        "▁đe",
        -12.187175083553187
      ],
      [
        "▁oanh",
        -12.18852033646491
      ],
      [
        "rùng",
        -12.188537200624184
      ],
      [
        "▁bung",
        -12.18861890467787
      ],
      [
        "giùm",
        -12.188657542672958
      ],
      [
        "88",
        -12.189161417400951
      ],
      [
        "topic",
        -12.189490345179005
      ],
      [
        "▁1800",
        -12.19091199895058
      ],
      [
        "hòng",
        -12.191089612149634
      ],
      [
        "▁dụng",
        -12.191155273316715
      ],
      [
        "ườm",
        -12.19164111022066
      ],
      [
        "▁phồn",
        -12.192611259373624
      ],
      [
        "rụi",
        -12.193162819035129
      ],
      [
        "series",
        -12.193742133063203
      ],
      [
        "▁line",
        -12.194014328825387
      ],
      [
        "24h",
        -12.194388324476655
      ],
      [
        "▁vong",
        -12.194637228597006
      ],
      [
        "ẫn",
        -12.194919314052102
      ],
      [
        "giun",
        -12.195523292343196
      ],
      [
        "uồng",
        -12.195819582211094
      ],
      [
        "▁100m2",
        -12.196325894562154
      ],
      [
        "lách",
        -12.196571860256528
      ],
      [
        "ráo",
        -12.1971200638837
      ],
      [
        "1946",
        -12.197505719496148
      ],
      [
        "tone",
        -12.199976791963088
      ],
      [
        "ton",
        -12.20052905417029
      ],
      [
        "▁team",
        -12.202436503892484
      ],
      [
        "▁135",
        -12.202873779097208
      ],
      [
        "đọa",
        -12.203454103323503
      ],
      [
        "▁box",
        -12.204558335947764
      ],
      [
        "gãi",
        -12.205553456618942
      ],
      [
        "▁tịch",
        -12.2056865797889
      ],
      [
[...]
